#version: 0.2
n g</w>
t h
t r
a n
c h
t i
n g
th e</w>
n h
n h</w>
r e
e r
e d</w>
i n
a r
e n
o r
o n
k h
i ệ
p h
o n</w>
t o</w>
an d</w>
o u
o f</w>
e r</w>
e s</w>
i n</w>
i ng</w>
á c</w>
a n</w>
i t
g i
v à</w>
a l
c h</w>
ô ng</w>
q u
r o
ư ờ
ê n</w>
h a
v i
T h
e s
a s
a l</w>
a t
i s
c ủ
củ a</w>
i l
ư ợ
o ng</w>
ộ t</w>
c ác</w>
ạ i</w>
đ ã</w>
o r</w>
ớ i</w>
o m
a ti
l i
m ột</w>
a c
a t</w>
l o
ượ c</w>
i s</w>
e c
ế n</w>
đ ược</w>
c ó</w>
à y</w>
r u
a m</w>
s i
e n</w>
ườ i</w>
a s</w>
e t
a y</w>
ấ t</w>
h o
tr ong</w>
à o</w>
a m
u y
ng ười</w>
ch o</w>
s t
l y</w>
en t</w>
i c
v e</w>
l à</w>
s a
u r
â n</w>
u s
t s</w>
ế t</w>
h i
v ới</w>
2 0
th e
f or</w>
á ng</w>
e l
iệ n</w>
ư ớ
p l
Th e</w>
e a
i r
ố c</w>
d i
e m
b i
ữ ng</w>
a ng</w>
o l
à nh</w>
n ă
C h
iệ t</w>
v ào</w>
th at</w>
ườ ng</w>
ầ u</w>
c e</w>
c on
ề u</w>
p ro
nh i
r i
ì nh</w>
đ ến</w>
nh ững</w>
V i
s u
er s</w>
u n
c u
th áng</w>
t ed</w>
ou n
kh ông</w>
t ại</w>
t ừ</w>
w it
ng h
ầ n</w>
ệ nh</w>
t h</w>
ư ơ
e v
g h
wit h</w>
ro m</w>
n o
s p
ng ày</w>
b e
Vi et
f rom</w>
ậ n</w>
a d
ướ c</w>
Viet n
á ch</w>
nă m</w>
a g
V iệt</w>
đ ể</w>
ứ c</w>
kh i</w>
c ông</w>
1 9</w>
Q u
n ày</w>
ati on</w>
ar e</w>
ươ ng</w>
á o</w>
ả i</w>
p o
à ng</w>
w h
n e
ự c</w>
ị ch</w>
t o
a o</w>
c om
er e</w>
w as</w>
a b
á t</w>
th ể</w>
p er
í nh</w>
ằ ng</w>
N am</w>
c or
an h</w>
s t</w>
à n</w>
b ị</w>
i ể
o v
â y</w>
s ố</w>
à i</w>
0 0</w>
t er</w>
it y</w>
ố i</w>
ề n</w>
e x
C o
t u
on s</w>
s ẽ</w>
vi ru
ả n</w>
i d</w>
v ề</w>
p or
ộ ng</w>
v iệ
h ọ
b y</w>
’ s</w>
N g
ha ve</w>
b u
f f
ha s</w>
i t</w>
b ệnh</w>
đ ầu</w>
T ru
Vietn am</w>
d e
d u
d ing</w>
l d</w>
l u
s e
b e</w>
việ c</w>
ti on</w>
tr ường</w>
nh ân</w>
ố ng</w>
n ,</w>
viru s</w>
ơ n</w>
c i
a y
a p
ù ng</w>
i m
nh à</w>
iệ u</w>
m ent</w>
H o
o o
gi a</w>
s o</w>
s ự</w>
t er
r a</w>
h ợ
f ir
w or
ộ c</w>
a k
sa id</w>
a i</w>
th ành</w>
Co vi
ộ i</w>
" "
p e
i ,</w>
ậ p</w>
ạ n</w>
th er</w>
l e</w>
hợ p</w>
tr ên</w>
es e</w>
i nh</w>
P h
r ằng</w>
pl e</w>
at e</w>
l e
m e
đ ị
d o
d ụ
p re
ea r</w>
ng ,</w>
N h
r a
á n</w>
ậ t</w>
or e</w>
h e</w>
i r</w>
c as
d s</w>
Tru ng</w>
ặ c</w>
ti ng</w>
qu an</w>
ch i
d ay</w>
tr y</w>
đ ang</w>
ờ i</w>
i .</w>
re d</w>
n .</w>
th ứ</w>
h àng</w>
bi ết</w>
d ịch</w>
ồ ng</w>
n ước</w>
họ c</w>
nhi ễ
d is
c oun
ổ i</w>
ô i</w>
th u
qu ốc</w>
i ều</w>
p u
ngh iệ
nh ư</w>
ng .</w>
m o
s e</w>
an y</w>
nh ận</w>
t ế</w>
t y</w>
h iện</w>
x u
đ ộng</w>
w ere</w>
cor on
ứ ng</w>
ă n</w>
il l</w>
ũ ng</w>
1 9
ch uy
Qu ốc</w>
ă ng</w>
ti ế
nhiễ m</w>
in c
h ọ</w>
t e
e al
o ple</w>
en ts</w>
á i</w>
à m</w>
sa u</w>
ou t</w>
on e</w>
ph át</w>
iể m</w>
0 00</w>
h ơn</w>
dụ ng</w>
e ar
á p</w>
i c</w>
ha d</w>
ê u</w>
on al</w>
M ar
Ch in
ou ld</w>
it s</w>
ấ p</w>
nhi ều</w>
l a
i es</w>
d o</w>
c o
ả m</w>
in e</w>
c ũng</w>
c ách</w>
ấ y</w>
T r
u ng</w>
y ear</w>
ả ng</w>
i d
no t</w>
ch ính</w>
b áo</w>
I n
l àm</w>
w e
as t</w>
om e</w>
pe ople</w>
in f
c ả</w>
coron a
c ,</w>
s o
be en</w>
th ông</w>
p ar
a in
đ iều</w>
il li
e t</w>
gh t</w>
20 1
ou r
al l</w>
ả nh</w>
w ill</w>
2 0</w>
â m</w>
u m
kh o
đ ó</w>
ư a</w>
ar y</w>
the ir</w>
m u
ế u</w>
ạ t</w>
at ed</w>
re c
n i
à y
b o
vi ên</w>
ha i</w>
l ại</w>
ư ng</w>
wh o</w>
the o</w>
ụ c</w>
i g
nh ất</w>
ò ng</w>
ắ t</w>
c .</w>
ư ở
đ ó
qu y
' s</w>
ắ c</w>
ph ải</w>
ng o
es t</w>
ch ỉ</w>
C ác</w>
ti es</w>
al so</w>
a f
an d
ấ n</w>
ả o</w>
ú ng</w>
xu ất</w>
illi on</w>
ti m
t ur
ưở ng</w>
eal th</w>
h ành</w>
c ơ</w>
x ác</w>
ượ ng</w>
e l</w>
Mar ch</w>
g h</w>
corona virus</w>
in is
đ ồng</w>
an g
v er
r ou
al ly</w>
m ore</w>
a ,</w>
ov er
kh ác</w>
ati onal</w>
th is</w>
in ce</w>
ẫ n</w>
o re
ho ặc</w>
a u
e m</w>
l ớ
c an</w>
th ực</w>
es s</w>
t w
o ther</w>
d er</w>
s tr
cu ộc</w>
í ch</w>
tr ở</w>
b er</w>
á nh</w>
the y</w>
n ó
uy ên</w>
th i
al s</w>
d ân</w>
tr iệu</w>
ol d</w>
s ử</w>
Th e
ễ n</w>
V ào</w>
ạ o</w>
ê m</w>
s ản</w>
d ed</w>
đị nh</w>
ti n
Covi d</w>
đ ối</w>
ặ t</w>
du c
k s</w>
fir st</w>
si nh</w>
m on
ơ i</w>
tiế p</w>
th ời</w>
Covi d
Covid -
C O
w hi
t ,</w>
ou r</w>
cas es</w>
t ăng</w>
it al</w>
i a</w>
O n</w>
ati ons</w>
w n</w>
m ới</w>
f or
whi ch</w>
â u</w>
en ti
ph ố</w>
m ar
ở i</w>
u l
re por
c on</w>
1 0</w>
a r</w>
m ed</w>
ch ức</w>
c ứ
a v
v iện</w>
. '
n ày
re n
ử a</w>
I n</w>
V I
nh ,</w>
m à</w>
f i
B ộ</w>
ng hi
ọ i</w>
ú c</w>
c ầu</w>
v ì</w>
oun d</w>
Chin a</w>
e b
CO VI
tr ước</w>
ể n</w>
ag e</w>
th ế</w>
b ao</w>
re a
lo c
tw o</w>
ỉ nh</w>
ti n</w>
b ay</w>
s h
us e</w>
ec ted</w>
e as
đ ại</w>
cứ u</w>
af ter</w>
or s</w>
kh ách</w>
v ụ</w>
m ạ
m i
com p
p p
, 000</w>
bu t</w>
u y</w>
k i
c áo</w>
r is
Ho a</w>
t .</w>
an n
ti ons</w>
th ấy</w>
kh ỏ
đ i</w>
m á
l ên</w>
an t</w>
t ính</w>
ò n</w>
to àn</w>
ti ve</w>
iể n</w>
th an</w>
G i
l ed</w>
nghiệ m</w>
inc lu
e p
si d
ph áp</w>
h is</w>
f ac
nh ưng</w>
M ột</w>
ổ ng</w>
coun try</w>
H à</w>
ne w</w>
th o
c ấp</w>
. "</w>
nh .</w>
g ồ
con fir
ch úng</w>
am e</w>
Vietn am
u p</w>
b ởi</w>
gi ảm</w>
u d
s ur
lớ n</w>
gồ m</w>
ak e</w>
l ượng</w>
đ ưa</w>
re s</w>
li ên</w>
ô n</w>
ff ic
N am
an ce</w>
y o
b ạn</w>
tr ị</w>
kh u</w>
á m</w>
tr ung</w>
Vietnam ese</w>
ti ên</w>
ov er</w>
d u</w>
k ing</w>
h er</w>
k iểm</w>
es s
en t
qu a</w>
gi ới</w>
a in</w>
s er
ac c
K h
b ắt</w>
Ng uy
c ao</w>
ố n</w>
ay s</w>
é t</w>
gi á</w>
c a</w>
m illion</w>
h ội</w>
a .</w>
t ỉnh</w>
confir med</w>
re e</w>
ỗ i</w>
T ro
g en
ic al</w>
đị a</w>
p ati
s ho
sp ital</w>
t ôi</w>
b ằng</w>
20 20</w>
ă m</w>
lo w
l ý</w>
ou s</w>
c es</w>
b ố</w>
l ịch</w>
t a</w>
k ết</w>
in es</w>
com m
a u</w>
over n
ữ a</w>
uy ền</w>
t âm</w>
e d
nghi ên</w>
c ô</w>
o i</w>
c ùng</w>
w ould</w>
t e</w>
c òn</w>
B ệnh</w>
pro v
đ o
n ational</w>
kh ẩ
il e</w>
t es
p ri
g r
ab out</w>
k e</w>
yo u</w>
us t</w>
s y
s ed</w>
H C
tr e
ph òng</w>
ệ n</w>
ar g
s ec
cor ding</w>
i ties</w>
c ent</w>
M inis
tim e</w>
b ec
A nh</w>
ph ương</w>
m .</w>
ab le</w>
d ec
at es</w>
Ô ng</w>
m ình</w>
Tro ng</w>
ạ m</w>
d ự</w>
Covid- 19</w>
ố t</w>
S t
3 0</w>
quy ền</w>
m any</w>
f e
g ần</w>
ừ ng</w>
n ing</w>
ẩ m</w>
c a
e lo
tr uyền</w>
r ic
má y</w>
si on</w>
đ iểm</w>
lo ại</w>
ạ ch</w>
el l</w>
tr ình</w>
ô m</w>
d re
t ình</w>
tr iển</w>
H an
D is
tu ổi</w>
pre s
c ảnh</w>
t ỷ</w>
đ ề</w>
v ực</w>
ọ ng</w>
ch ứng</w>
qu ar
k ed</w>
us ed</w>
đ ộ</w>
c ửa</w>
an s</w>
ồ i</w>
ồ n</w>
tr ies</w>
ev er
T o
y êu</w>
s ti
ph ủ</w>
per cent</w>
nó i</w>
s it
ev elo
c en
V N
ph ụ</w>
ch u
th ị</w>
a i
st ud
n ữ</w>
ho ạt</w>
u ,</w>
tr ic
t ất</w>
nă ng</w>
kho ảng</w>
i z
b ộ</w>
s ức</w>
I t</w>
th ường</w>
The o</w>
in v
h ealth</w>
h ệ</w>
e i
t ự</w>
overn ment</w>
ou t
l is
b a</w>
b an</w>
s he</w>
m ,</w>
t en
o p
v ing</w>
tr an
ph ần</w>
n ed</w>
th ống</w>
c y</w>
1 5</w>
ì m</w>
pu b
as ed</w>
g ây</w>
b ất</w>
ec t</w>
nghiệ p</w>
n um
v ẫn</w>
.' ,</w>
ev er</w>
Han oi</w>
tr i
m an</w>
in ter
th er
n ơi</w>
ear s</w>
c ed</w>
x ét</w>
w i
t ới</w>
b ảo</w>
3 ,</w>
ướ ng</w>
m p
l ea
h ình</w>
. 000</w>
H e</w>
o c
ng s</w>
gi ải</w>
c ần</w>
ph i
or y</w>
r ất</w>
h ôm</w>
em ic</w>
s ome</w>
S ou
s át</w>
cas e</w>
N e
tr a</w>
ngo ài</w>
inf ec
the m</w>
pro duc
d evelo
ạ ng</w>
t ử</w>
s ch
n ó</w>
l and</w>
é p</w>
s ở</w>
coun tries</w>
v e
w om
qu ả</w>
in to</w>
at er</w>
ấ u</w>
1 4</w>
wh en</w>
il l
n ào</w>
repor ted</w>
mo st</w>
is t
th u</w>
l ast</w>
an tin
y ,</w>
u e</w>
ả y</w>
thi ết</w>
so ci
quar antin
t uy
li c</w>
ê n,</w>
y ears</w>
c lo
a ir
U .</w>
ph ẩm</w>
oo d</w>
d e</w>
khẩ u</w>
t ư</w>
inclu ding</w>
tr ẻ</w>
em ent</w>
ar d</w>
Chin ese</w>
C ông</w>
1 0
a re
H ealth</w>
t ìm</w>
n ên</w>
l iệu</w>
ad e</w>
đ ô</w>
1 2</w>
tr o
it ed</w>
h el
il y</w>
con t
ẩ n</w>
đ ây</w>
pl ac
chuy ến</w>
b et
đ ường</w>
nh ập</w>
k inh</w>
p s</w>
en ce</w>
eas e</w>
k ể</w>
gi an</w>
w s</w>
t ác</w>
m a
C om
t ạo</w>
th ree</w>
po si
k ỳ</w>
f in
c ould</w>
t or</w>
l ần</w>
đ iện</w>
chuy ển</w>
ati ng</w>
ừ a</w>
T i
g overnment</w>
be ing</w>
o ffic
d er
an c
Qu ố
ể u</w>
t ổ</w>
ch ủ</w>
ti ền</w>
on ly</w>
num ber</w>
c ar
à u</w>
l l</w>
ac t</w>
d ays</w>
N ội</w>
f u
wor ld</w>
s ĩ</w>
này .</w>
m ặt</w>
c ộng</w>
U S
bi ế
A ir
tr ang</w>
t ập</w>
p a
l ây</w>
t ài</w>
or m
f li
COVI D
s on</w>
por t</w>
đó ,</w>
l ực</w>
do anh</w>
20 0
p and
c l
K ỳ</w>
ha t</w>
COVID -
x ã</w>
tr ưởng</w>
s ống</w>
ch il
x e</w>
u .</w>
ac k</w>
v en
th s</w>
ann oun
5 0</w>
tric t</w>
th ere</w>
en d</w>
P ro
v es</w>
m an
đ ất</w>
v acc
t ment</w>
v ấn</w>
tiế ng</w>
h iệu</w>
re sp
ế m</w>
wh ile</w>
l ập</w>
k e
t ổng</w>
m ọi</w>
c ity</w>
U n
quy ết</w>
f ore</w>
ch ất</w>
[ '
đó ng</w>
ú p</w>
s hi
re s
kh á
gi ao</w>
ó ng</w>
no w</w>
si a</w>
m e</w>
ha y</w>
S .</w>
đ ình</w>
tr ọng</w>
g y</w>
develo p
c al
P ar
re tur
m ức</w>
" "</w>
Đ ại</w>
x in</w>
w ay</w>
L i
ó a</w>
v ị</w>
l ine</w>
v ed</w>
f ore
b án</w>
tr av
o .</w>
m ay</w>
COVI D</w>
B u
s us
n o</w>
k ế</w>
d ẫn</w>
th ì</w>
re as
o ,</w>
su ch</w>
t uyên</w>
wor k</w>
el l
20 20
y ing</w>
m er
h ạn</w>
F eb
we e
ph ép</w>
i al</w>
ex p
Feb ru
v ật</w>
m is
gi úp</w>
di a</w>
an ds</w>
h ome</w>
g ọi</w>
s es</w>
m in
gi ờ</w>
es ti
d ự
Ho spital</w>
Febru ary</w>
đ ổi</w>
po li
Nh ững</w>
cu ng</w>
ti êu</w>
me d
khỏ e</w>
th or
g o
th ức</w>
pand emic</w>
m ỗi</w>
đ àn</w>
t al
rou p</w>
mar k
Th is</w>
Minis try</w>
í a</w>
ti c
T u
ạ c</w>
th ương</w>
c re
2 5</w>
tr ợ</w>
li ke</w>
s ince</w>
n ay
HC M
1 1</w>
t ương</w>
se ar
f t</w>
Sou th</w>
M ỹ</w>
cu ối</w>
chi a</w>
f e</w>
at ur
Nam ,</w>
v i</w>
Dis trict</w>
ậ u</w>
y .</w>
tu ần</w>
th ay</w>
pub lic</w>
ff e
kh í</w>
em ber</w>
th êm</w>
ợ i</w>
ấ m</w>
đ ánh</w>
lo w</w>
g e</w>
In ter
p as
d es
re l
m inis
h ưởng</w>
b ản</w>
pati ents</w>
comp any</w>
i f</w>
sus p
o f
l ã
ig n</w>
c ur
ó m</w>
f am
st ar
ch ế</w>
ắ ng</w>
ú t</w>
chi ến</w>
A c
w e</w>
ph ía</w>
we en</w>
ch ống</w>
su l
lo o
be fore</w>
b ình</w>
hi gh</w>
c ap
1 6</w>
re qu
p ,</w>
Ne w</w>
ur ing</w>
t ly</w>
ằ m</w>
ò a</w>
b rea
b or
ac cording</w>
et s</w>
bi ến</w>
announ ced</w>
re m
ou gh</w>
h ea
a il
qu á</w>
b ỏ</w>
ev en</w>
v ậ
our is
g u
này ,</w>
posi tive</w>
ủ ng</w>
un e</w>
ki ến</w>
i ng
dis ease</w>
D e
thu ộc</w>
re sid
gi ữa</w>
w ell</w>
u res</w>
e ff
c ảm</w>
K ore
wi th
ar ound</w>
th am</w>
di rec
2 2</w>
th ủ</w>
s ách</w>
đ ặc</w>
v ùng</w>
t ak
o b
di ễn</w>
ati ve</w>
đ ều</w>
un der</w>
tran s
tes ted</w>
kho a</w>
1 .
wh ere</w>
t ers</w>
h ã
dre n</w>
Nguy ễn</w>
M inh</w>
uy ện</w>
tur e</w>
tr ực</w>
tho se</w>
t ors</w>
mạ nh</w>
l an</w>
ho ạch</w>
thu ốc</w>
ngh ệ</w>
bet ween</w>
on d</w>
Nguy en</w>
A f
R e
t ục</w>
g g
g an
kh i
chuy ên</w>
c á</w>
a use</w>
A n
í t</w>
re gi
ng u
Un ited</w>
th ese</w>
loc al</w>
t al</w>
ng ườ
d ương</w>
th rou
r it
ex per
1 3</w>
0 0
l arg
f ol
b iệt</w>
tu ổ
tr al</w>
n ếu</w>
au thor
20 19</w>
tr í</w>
re sear
r on
mu a</w>
b us
y s</w>
u s</w>
b iện</w>
The y</w>
1 7</w>
so át</w>
s áng</w>
Nh ật</w>
A l
do wn</w>
oo l</w>
ng uy</w>
2 4</w>
1 ,
tro l</w>
S he</w>
khỏ i</w>
in d
t ế
a ff
M o
ủ y</w>
ư u</w>
ho àn</w>
h óa</w>
2 1</w>
ớ i.</w>
ver s
pati ent</w>
l a</w>
gh ts</w>
) ,</w>
b le</w>
ap p
th ử</w>
d ùng</w>
ứ a</w>
st s</w>
k iện</w>
d i</w>
bec ause</w>
C ity</w>
f ound</w>
Th anh</w>
quarantin e</w>
an u
m ở</w>
m as
g ì</w>
Th ái</w>
u c
ther n</w>
iệ m</w>
chil dren</w>
an ts</w>
v ệ</w>
oo k</w>
om s</w>
g ro
d ư
brea k</w>
sur e</w>
par tment</w>
f ic
ch ang
c ol
Covid- 19
ế c</w>
w ar
pri l</w>
o per
A pril</w>
re sul
ngu ồn</w>
me as
.' ]</w>
đ ặt</w>
si g
s el
HCM C</w>
t ốt</w>
or t</w>
m ang</w>
l es</w>
gi áo</w>
en s</w>
ch ết</w>
B ắc</w>
đ ốc</w>
m il
g re
J ap
H ai</w>
F ac
p .</w>
m ì
ac ti
2 3</w>
) .</w>
nh óm</w>
m p</w>
h um
c er
ắ n</w>
rea d</w>
lo gy</w>
ch i</w>
ọ c</w>
wom an</w>
w ever</w>
mark et</w>
le g
h ơ
d y</w>
Đ à</w>
f our</w>
K i
đ ạo</w>
n s</w>
em p
C en
t ouris
sp ec
ser vi
s s</w>
ng ày
med ical</w>
Ng o
1 8</w>
ạ nh</w>
ho spital</w>
T uy</w>
ẳ ng</w>
u m</w>
t ake</w>
s ame</w>
ch ưa</w>
M al
ắ p</w>
v ận</w>
kh ả</w>
2 7</w>
sa ng</w>
nhi ên,</w>
il i
H u
A n</w>
2 ,</w>
gh i</w>
cu ̉
author ities</w>
vacc ine</w>
lo y
id e</w>
củ a</w>
b illion</w>
Nam .</w>
Ch ính</w>
throu gh</w>
m ade</w>
L o
qu y</w>
ng ăn</w>
d ea
H àn</w>
ặ p</w>
m it
em b
ch âu</w>
b ác</w>
a ir</w>
U ni
m s</w>
ó c</w>
wor k
gi ám</w>
O n
t ấn</w>
r an
e red</w>
d uring</w>
Ng ười</w>
1 5
sy st
m ake</w>
lo b
anu ary</w>
J anuary</w>
. ”</w>
prov ince</w>
h ồi</w>
ever al</w>
W h
thu ật</w>
n ay</w>
l ines</w>
c ri
at h</w>
COVID- 19</w>
C on
ph ục</w>
S au</w>
ặ ng</w>
x úc</w>
to tal</w>
s k
m ak
es day</w>
d ài</w>
N ẵ
N ational</w>
s ing</w>
c -
Tru mp</w>
Fac eb
khi ến</w>
A s</w>
2 8</w>
Đ ông</w>
it e</w>
x ảy</w>
t àu</w>
du e</w>
T ha
2020 ,</w>
ị ch
su b
i an</w>
el s</w>
d ro
chi ếc</w>
bus in
a d</w>
ì n</w>
t old</w>
k no
ar ri
I s
Bu t</w>
su p
h ết</w>
s ẻ</w>
ric e</w>
ng uyên</w>
l in
infec tion</w>
i o
hel p</w>
gi ữ</w>
ẫ u</w>
y p
sp read</w>
Ac cording</w>
A u
v ong</w>
po pu
out break</w>
lã nh</w>
la r</w>
j ust</w>
ain st</w>
A mer
ọ n</w>
ầ m</w>
viru s
ti z
te ch
nay ,</w>
mi ền</w>
c ấm</w>
ag ainst</w>
2 6</w>
y our</w>
vers ity</w>
un ity</w>
soci al</w>
l ợi</w>
kh ó</w>
inf orm
Amer ic
tr ạng</w>
sti ll</w>
er al</w>
c ư</w>
b ased</w>
ặ n</w>
ph ản</w>
W or
Pro v
p er</w>
I tal
D u
v er</w>
ne t</w>
n or
m ents</w>
im por
2 .
t ên</w>
mon th</w>
as s
are as</w>
ắ c-
tr ac
ren t</w>
d r
d on
Nh ưng</w>
H ọ</w>
g et</w>
t ích</w>
hi gh
d ù</w>
Prov ince</w>
đo àn</w>
sch ool</w>
ch ed</w>
b ài</w>
at e
y ếu</w>
x em</w>
h ướng</w>
al l
á u</w>
resp on
ou s
on om
inform ation</w>
fol low
S e
us ing</w>
fu l</w>
d anh</w>
c ổ</w>
b ùng</w>
ph ân</w>
l ời</w>
d em
1 8
ớ i,</w>
th ích</w>
mạ ng</w>
mu ốn</w>
m ất</w>
h ỗ</w>
ea ch</w>
sa ys</w>
j o
fam ily</w>
ec ts</w>
T ổng</w>
1 00</w>
tr ướ
om e
bi ểu</w>
b à</w>
tre at
re ad
inc reas
g an</w>
c ái</w>
b ên</w>
V ũ</w>
ver y</w>
stud ents</w>
sid e</w>
m at
tuổ i,</w>
t a
inf ected</w>
T P</w>
u ro
tuy ến</w>
sec ond</w>
s ân</w>
n ướ
b ri
Faceb ook</w>
qu ản</w>
d et
B ình</w>
vi de
th en</w>
s everal</w>
inter national</w>
i l</w>
fi ve</w>
f ood</w>
e p</w>
V in
R es
K ỳ
H ồ</w>
C u
pro c
c ố</w>
bo th</w>
J o
un der
tr ả</w>
pro vi
ma j
lo gi
k é
ã n</w>
tr anh</w>
ph ạm</w>
per son</w>
ol s</w>
Minis ter</w>
trav el</w>
ti ến</w>
Qu ang</w>
P o
J u
4 0</w>
sh ould</w>
l ệnh</w>
ệ t</w>
v ắc-
rec ei
plac e</w>
m inh</w>
w hat</w>
ti l</w>
ti c</w>
th ing</w>
nhi ên</w>
b l
Th ủ</w>
S A
đ ầ
r ộng</w>
pro t
l ev
is su
Quố c,</w>
M on
Ho wever</w>
li m
kh ai</w>
iệ p</w>
bu ộc</w>
Ch ủ</w>
A r
ế p</w>
đ ội</w>
d ers</w>
c am
b r
nh iệt</w>
l ệ</w>
ent ly</w>
c al</w>
"" "
đ ảo</w>
ti ết</w>
of f</w>
gan iz
cont act</w>
bi ển</w>
St ates</w>
shi p</w>
mon ths</w>
con tin
Mal ay
h u
b ack</w>
Th ành</w>
re g
nh ậ
Uni versity</w>
ng er</w>
ec onom
ati on
Kh i</w>
19 9
x ây</w>
v ài</w>
th i</w>
t ướng</w>
par t</w>
nh anh</w>
n ổi</w>
d iện</w>
2 ,
xu ống</w>
un til</w>
k il
for m
c are</w>
đo ạn</w>
si an</w>
lob al</w>
enti al</w>
com e</w>
L an</w>
B a
ữ u</w>
đ ơn</w>
đ áng</w>
t en</w>
poli ce</w>
ph í</w>
li fe</w>
im m
ci al</w>
ur e</w>
se t</w>
po s
is h
hã ng</w>
an ,</w>
al ity</w>
D i
ó n</w>
tr al
stud y</w>
i f
i als</w>
em s</w>
ch í</w>
b é</w>
b er
Kore a</w>
t ay</w>
l ong</w>
dụ c</w>
com pl
ch ặn</w>
to p</w>
ki ếm</w>
h ộ</w>
ù a</w>
v ăn</w>
th anh</w>
t ịch</w>
mi ễn</w>
m ắc</w>
B à</w>
đ ộc</w>
v òng</w>
v en</w>
treat ment</w>
is e</w>
h ỏ
f ul
M i
HC M</w>
E uro
B ản</w>
wom en</w>
tr ùng</w>
sy mp
o w
l ands</w>
g roup</w>
at ory</w>
A us
ris k</w>
ne x
meas ures</w>
dự ng</w>
at a</w>
W H
P e
ĩ a</w>
nh au</w>
k ý</w>
es t
di d</w>
S p
C am
t em
repor t</w>
ngh i</w>
nex t</w>
lu ật</w>
kno wn</w>
k ỹ</w>
dư ới</w>
cal led</w>
Ph ili
Ch úng</w>
2 5
0 ,000</w>
"" ."</w>
đ ồ</w>
đ ạt</w>
w ater</w>
th ers</w>
pre v
pas se
l o</w>
ch ương</w>
ch ers</w>
at t
VN D
​ ​
wee k</w>
ng ay</w>
il ity</w>
fli ght</w>
c ụ</w>
T ại</w>
Air lines</w>
ử i</w>
ề m</w>
Đ iều</w>
w ays</w>
r e</w>
or ies</w>
h ữu</w>
do c
ar ly</w>
ô ng,</w>
x ử</w>
vắc- xin</w>
t on</w>
ng ành</w>
ci tiz
cen tral</w>
S a
đ â
syst em</w>
s en
fac e</w>
emp loy
chu ẩn</w>
li c
e ,</w>
b ro
Phili pp
3 1</w>
uy ến</w>
on line</w>
nh iệm</w>
me dia</w>
ượ t</w>
work ers</w>
tr ận</w>
p ol
n am</w>
m or
ic e</w>
b ốn</w>
Wor ld</w>
De partment</w>
C ô</w>
s ou
m ục</w>
en ded</w>
T ôi</w>
N ộ
J une</w>
C ha
ã i</w>
with out</w>
t ừng</w>
s ci
im p
i gh
h ed</w>
et y</w>
e y</w>
am s</w>
S E
N or
ạ y</w>
đ ủ</w>
tr a
t ạ
t í
t es</w>
phi m</w>
g o</w>
bu il
ar i
T ây</w>
SA R
Inter national</w>
1 6
t est</w>
str ic
s ha
nghi êm</w>
l ạ
gro w
g ửi</w>
f ri
L ong</w>
Jap an</w>
p e</w>
ng ers</w>
l ưu</w>
hi m</w>
h uyện</w>
eas es</w>
c àng</w>
2 9</w>
mis sion</w>
j ect</w>
h ậu</w>
g ặp</w>
de ath</w>
D a</w>
ổ n</w>
vide o</w>
A s
thi ếu</w>
s a</w>
resid ent</w>
qu ân</w>
ngh ỉ</w>
m y</w>
con trol</w>
am ong</w>
ain s</w>
ain ed</w>
G er
đ ứng</w>
v o
ti onal</w>
st ate</w>
fore ign</w>
b ur
an ti
al low
Qu ảng</w>
N ăm</w>
s al
qu ận</w>
per s
ov ered</w>
h an</w>
d õ
N inh</w>
M ay</w>
t oms</w>
s ome
s ay</w>
m ain
l ater</w>
h ou
e ng
c âu</w>
ac e</w>
ô ng.</w>
re cor
ph i</w>
or der</w>
d ru
Li ên</w>
5 00</w>
t ượng</w>
sp it
ph á</w>
o ff
nh ằm</w>
ngh ĩa</w>
họ p</w>
comp an
ch ăm</w>
ch arg
S ing
ĩ nh</w>
đ ăng</w>
ê ng</w>
tech no
resear ch</w>
r an</w>
n ữ
man ag
maj or</w>
m ối</w>
ho w</w>
er ing</w>
e qu
di tion</w>
X u
Ti k
S u
Ju ly</w>
I f</w>
G oo
â ng</w>
w er</w>
v al
tim es</w>
su ng</w>
str uc
sp o
sit e</w>
re le
m ẹ</w>
l at
khá c.</w>
Ital y</w>
C hi
7 0</w>
201 8</w>
y ou
wor king</w>
ven tion</w>
ng ừa</w>
m ặc</w>
l ễ</w>
l y
infec tions</w>
gen cy</w>
ear ly</w>
as e</w>
U S</w>
S a</w>
Ch í</w>
B o
Aus tral
0 %</w>
servi ces</w>
li er</w>
in s</w>
c anc
R us
3 .</w>
ph ê</w>
nh ỏ</w>
n ền</w>
n ặng</w>
n er</w>
m en</w>
h al
bo dy</w>
M e
đ ồ
ó i</w>
uy ết</w>
sti tu
n ạn</w>
m ẫu</w>
h ear
c ăn</w>
b ệ
Sing a
F or
đ ảm</w>
ur ity</w>
g ái</w>
d ata</w>
c ây</w>
bec ome</w>
C an
"" ,</w>
u han</w>
tr ò</w>
sho w
sel f</w>
m ô</w>
inv es
du ce</w>
direc tor</w>
dea ths</w>
cu l
ch o
c ame</w>
W uhan</w>
N ếu</w>
E x
” .</w>
vi sit
v ô</w>
retur ned</w>
pro f
m ôi</w>
h ại</w>
fli ghts</w>
c lu
as hi
ad ded</w>
VN D</w>
H I
Goo g
6 0</w>
tr ách</w>
ngo á
e vi
ar m
Au g
tho ại</w>
t ối</w>
symp toms</w>
o s</w>
l úc</w>
l ess</w>
ir d</w>
W e</w>
Tr ường</w>
Ng ày</w>
B a</w>
A I</w>
ã o</w>
s óc</w>
n ec
hea d</w>
c our
Quố c.</w>
đ ấu</w>
si ble</w>
o k</w>
en d
e ther</w>
dõ i</w>
coron a</w>
ch ị
ain ing</w>
Aug ust</w>
1 4
ậ m</w>
st o
ngườ i.</w>
l ao</w>
id enti
bi ên</w>
ac k
H ong</w>
F ri
F r
1 ,</w>
w as
t ải</w>
ngh ị</w>
l ing</w>
l ation</w>
de red</w>
Tik To
T e
đ ộ
ê n.</w>
x a
w at
vậ y</w>
kho ản</w>
ist an</w>
exp ected</w>
ca used</w>
as ked</w>
N i
COVID- 19
ắ m</w>
vi ron
tak en</w>
ro ss</w>
pu ty</w>
produc ts</w>
our s</w>
in k</w>
ho spit
don es
an other</w>
R o
In dones
C E
si ve</w>
re st
n ội</w>
lu ận</w>
kh u
ind us
h à
di ffe
ch es</w>
b re
at ten
WH O</w>
US D
Th ế</w>
Nẵ ng</w>
F or</w>
B inh</w>
3 .
"" "</w>
’ t</w>
ự a</w>
đ ông</w>
v el</w>
th ấp</w>
th ư</w>
po sed</w>
ph ổ</w>
n ông</w>
i on</w>
họ .</w>
f un
ec tive</w>
dis c
d ữ</w>
compan ies</w>
c ạnh</w>
Ph u
Nh à</w>
C ol
u al</w>
su y</w>
st at
n ’t</w>
n ằm</w>
n ess</w>
kh uyến</w>
in st
i ti
du y</w>
d ành</w>
ch ọn</w>
c la
Đ ây</w>
t ạm</w>
po in
passe ngers</w>
n âng</w>
n u
ess es</w>
N ang</w>
M ai</w>
L a
H ồng</w>
th úc</w>
sup port</w>
s m
nor thern</w>
ngo ại</w>
inclu de</w>
hơ n.</w>
g a
f l
esti g
dự a</w>
S h
Com m
t ức</w>
ai l</w>
I D
vi e
th ăm</w>
te am</w>
t yp
s àng</w>
m ùa</w>
le ar
en ing</w>
di ed</w>
chị u</w>
ag es</w>
Malay sia</w>
Ch i</w>
Af ter</w>
tr ải</w>
th ough</w>
sch o
pu t</w>
il and</w>
comm unity</w>
ci es</w>
c ứ</w>
al i
Tha iland</w>
P ri
G en
tế ,</w>
tr ánh</w>
par ti
mu ch</w>
le ast</w>
clo se</w>
c e
Fri day</w>
Ấ n</w>
t ội</w>
quarantin ed</w>
on es</w>
on d
m ại</w>
m emb
h ủy</w>
di vi
chang e</w>
car ri
20 0</w>
19 8
Đ ức</w>
ti m</w>
is ol
impor t
el ec
d ịch
cur ren
al e</w>
I ran</w>
Ho àng</w>
Goog le</w>
v ừa</w>
u ation</w>
si x</w>
ri êng</w>
ne ed</w>
minis try</w>
h út</w>
con cer
ch ing</w>
c ập</w>
busin ess</w>
are a</w>
On e</w>
B i
A t</w>
v u
pp ed</w>
n ers</w>
n '
h ầu</w>
en ed</w>
biế t,</w>
ẩ y</w>
ươ ng,</w>
z e</w>
th ải</w>
s ol
ph ó</w>
ph ong</w>
ngh ĩ</w>
n am
mas ks</w>
is h</w>
biế t.</w>
V iệ
S on</w>
H ải</w>
D an
A d
đó .</w>
w ide</w>
qu án</w>
n' t</w>
l ab
k ỷ</w>
hum an</w>
cu st
Philipp ines</w>
C D
B ả
sa o</w>
regi on</w>
read y</w>
hi ể
gi ai</w>
follow ing</w>
en cy</w>
em er
e ting</w>
c r
Z eal
V ăn</w>
M ỹ
L u
E ng
su m
requ i
phi ếu</w>
ous ly</w>
or ganiz
ni ght</w>
nh à
is t</w>
inv ol
h ộ
h e
ex am
ever y</w>
en ds</w>
develop ed</w>
citiz ens</w>
TikTo k</w>
Th u
S un
Mon day</w>
H a</w>
C or
A sia</w>
s is</w>
e es</w>
ac ross</w>
G u
Covid-19 .</w>
w a
u p
scho ols</w>
offic ials</w>
o thers</w>
lớ p</w>
l ate</w>
khá c,</w>
g lobal</w>
en ter
dis t
atur e</w>
A p
3 ,
w ea
techno logy</w>
ph ạt</w>
mon ey</w>
m ust</w>
l ấy</w>
hỏ i</w>
an h
S o
đ ời</w>
tran sp
s ent</w>
por ts</w>
mak ing</w>
l it
ké o</w>
if ic</w>
gi ới.</w>
fi ed</w>
en e
d en</w>
c ực</w>
b ang</w>
Th ere</w>
P re
201 6</w>
w ho
t ain</w>
p ment</w>
nh ấ
nh u</w>
in d</w>
g en</w>
es p
clo sed</w>
ci d
c k</w>
a i,</w>
W ed
V an</w>
Ng a</w>
B ri
8 ,</w>
ỏ a</w>
â n,</w>
iể u</w>
g ood</w>
S am
H y
u ống</w>
su pp
r y</w>
qu ần</w>
ne y</w>
mì nh.</w>
m ón</w>
f ur
f er
de p
ch ơi</w>
cap ital</w>
Wed n
HI V</w>
20 19
tr ái</w>
tic al</w>
th ân</w>
st an
s h</w>
ra ,</w>
prev ent</w>
o x
o wn</w>
memb ers</w>
larg est</w>
iz ed</w>
corona virus
chuy ện</w>
ch ,</w>
Wedn esday</w>
S ơn</w>
P resident</w>
P ak
2 4
0 .000</w>
s our
reg ul
per io
or ts</w>
ngày .</w>
ho ảng</w>
h ạ</w>
h y
f ar</w>
e f</w>
ch ủng</w>
ar s</w>
P ati
1 7
đ ứa</w>
sci enti
rec ent</w>
p r
ng ại</w>
mor ning</w>
khẩ n</w>
ha pp
gi ả</w>
do es</w>
di tional</w>
d ấu</w>
w ard</w>
un i
ti ện</w>
th ị
s ớ
rel ated</w>
pre vi
por e</w>
ng ôn</w>
n ation
mit ted</w>
inv estig
ic ro
c ử</w>
b ắc</w>
Singa pore</w>
N hi
đầ y</w>
th iện</w>
tes ting</w>
sho w</w>
se e</w>
h ar
Ch âu</w>
3 00</w>
đ ẩy</w>
pol lu
m ent
k êu</w>
i ally</w>
Y ou
S ec
7 ,</w>
. """</w>
đo án</w>
v al</w>
th ird</w>
resul ts</w>
qu ay</w>
pro gr
no vel</w>
hi t</w>
fe w</w>
develop ment</w>
d ễ</w>
be li
ag o</w>
T ư
P u
O r
Ngo ài</w>
, ”</w>
tế .</w>
re t
p i
p ast</w>
offic ial</w>
nh au
n on
m ov
lis t</w>
leg al</w>
larg e</w>
l and
compl et
an .</w>
Tr ước</w>
Th ị</w>
Th ese</w>
S y
N o
L e
D a
tr ì</w>
produc tion</w>
loo d</w>
inc es</w>
es tim
e .</w>
an k</w>
M any</w>
Ki m</w>
x ếp</w>
te e</w>
hi ểu</w>
g n
exper ts</w>
e du
b ab
Wh en</w>
V iện</w>
H o</w>
Gi ám</w>
Covid-19 ,</w>
As soci
2 6
wee ks</w>
re ased</w>
ne g
h ours</w>
d om
ch ấp</w>
c ải</w>
Y or
SE A
S ome</w>
us ers</w>
sur ve
su c
s even</w>
ngày ,</w>
ne ws</w>
lis h</w>
is ed</w>
increas e</w>
hal f</w>
f il
ep id
en viron
e ly</w>
divi du
ci ties</w>
Sun day</w>
Cen ter</w>
vi ol
retur ning</w>
r õ</w>
n er
m ắt</w>
lo ài</w>
lis hed</w>
li ke
ha ving</w>
b as
acti vi
Tu esday</w>
Gi ang</w>
ỡ ng</w>
́ ng</w>
á y</w>
s áu</w>
re stric
prov inces</w>
pl ans</w>
me di
import ant</w>
gen er
con tr
b ổ</w>
T im
D ong</w>
Americ an</w>
1 2
ợ t</w>
u ally</w>
tri bu
ter rit
r ate</w>
ng ing</w>
mon it
la un
kh áng</w>
g et
ep t
dec is
c ơn</w>
Việ c</w>
S atur
A sian</w>
touris ts</w>
t le</w>
t el
s ơ</w>
ngh ìn</w>
exper i
con si
c ánh</w>
ap prov
an im
ac coun
T ri
Pati ent</w>
201 7</w>
y o</w>
v ọng</w>
tes ts</w>
t ưởng</w>
st ay</w>
sa f
re st</w>
nướ c.</w>
nh ìn</w>
m a</w>
ho a</w>
go ing</w>
g s</w>
di es</w>
cla im
Zeal and</w>
Kore an</w>
K ong</w>
Fr ance</w>
you ng</w>
vi c
show ed</w>
s ố
s ev
r ời</w>
po st
in dividu
h ấp</w>
h a</w>
gi ới,</w>
chi ếm</w>
c ro
c oo
c k
av o
Kh ông</w>
C ó</w>
Austral ia</w>
Â u</w>
ve ly</w>
tri al</w>
th í</w>
t or
ri ght</w>
pl an
p ur
oo ds</w>
n ỗ</w>
l âu</w>
h ist
eal th
c ầ
bor der</w>
al ities</w>
af f</w>
ad a</w>
Se a</w>
2020 .</w>
đ á</w>
trav el
th ập</w>
s co
resear chers</w>
perio d</w>
me eting</w>
h òa</w>
for m</w>
ffic ul
ear lier</w>
di fficul
d ri
cust om
bu ổi</w>
b óng</w>
ann ed</w>
aff ected</w>
Pe ople</w>
D o</w>
C ơ</w>
A ll</w>
A F
3 0
with in</w>
u es</w>
tak ing</w>
susp ended</w>
su gg
nh ạc</w>
ng ờ</w>
ne e
n à
má u</w>
m et
lo t</w>
like ly</w>
gi r
f ail
d ầu</w>
Satur day</w>
Kỳ ,</w>
w ent</w>
v an
to ok</w>
s ,</w>
resul t</w>
pl ay
p ris
p il
n ửa</w>
l ạc</w>
it h</w>
i ous</w>
ho l
fur ther</w>
R i
P r
Indones ia</w>
6 ,</w>
4 ,</w>
đ u
Đ ài</w>
to án</w>
sớ m</w>
st aff</w>
sec urity</w>
s ẵ
s ư</w>
rec ently</w>
or ig
lev el</w>
il ities</w>
diffe rent</w>
co i</w>
ch ung</w>
biế t
b lood</w>
B iển</w>
4 .
á n,</w>
v ốn</w>
un ic
tr ăm</w>
si êu</w>
op en</w>
nó ng</w>
ne arly</w>
mi ght</w>
m id
kh ăn</w>
id ed</w>
ic k
g ốc</w>
ful ly</w>
ei ght</w>
d es</w>
com ing</w>
cl as
am es</w>
ad vi
Vi ng
Nhi ều</w>
ỏ ng</w>
we b
t ố</w>
ra in</w>
p ric
on ed</w>
m ong</w>
ch ú</w>
c ắt</w>
Th i
Jo h
v ai</w>
t òa</w>
recor ded</w>
pro ject</w>
plac es</w>
o m</w>
ngo à
mo ve</w>
kh ủng</w>
k ích</w>
indus try</w>
ec tion</w>
d ạng</w>
ch ec
activi ties</w>
T ất</w>
Re u
Ph áp</w>
B ra
A SEA
3 9</w>
xa 0
wor th</w>
trướ c,</w>
tr ai</w>
ti nh</w>
phi ên</w>
neg ative</w>
n et
gi ống</w>
b àn</w>
ati c</w>
ate ly</w>
al le
ag ed</w>
a way</w>
To k
Sa ig
P ac
Inter net</w>
In stitu
F ore
A nh,</w>
4 00</w>
3 5</w>
đ ợt</w>
we b</w>
w in
th ở</w>
su ất</w>
s á
popu lation</w>
l s</w>
inc reased</w>
ept ember</w>
d a</w>
contin ue</w>
ch .</w>
c el
bi a</w>
bet ter</w>
a ur
S eptember</w>
Con trol</w>
z er
vi êm</w>
thu ận</w>
ren ts</w>
pl es</w>
ph ổi</w>
mu l
it ary</w>
g ed</w>
fi el
f ree</w>
econom ic</w>
anc ing</w>
Y o
St ate</w>
S ự</w>
Pri me</w>
N ó</w>
In dia</w>
G o
” ,</w>
đ ôi</w>
trướ c.</w>
tre ated</w>
sẵ n</w>
rele ased</w>
or o
nh ật</w>
m ưa</w>
la w</w>
equ i
doc tors</w>
dem and</w>
T ừ</w>
SAR S</w>
Cen tral</w>
B an</w>
3 6</w>
ươ ng.</w>
tuy ển</w>
pl as
ni ên</w>
ne w
ir e</w>
in e
hospit als</w>
ev ents</w>
chil d</w>
charg ed</w>
allow ed</w>
Ph ó</w>
ọ t</w>
v ol
th ật</w>
th re
saf ety</w>
resid ents</w>
recei ved</w>
par t
man u
hear t</w>
ffe e</w>
dru g</w>
d am
an y
an ese</w>
Gen eral</w>
CE O</w>
ì nh,</w>
was te</w>
th iệt</w>
st u
qu ality</w>
or t
ngườ i,</w>
minis tr
gi ven</w>
est ab
duc ation</w>
Ngo ại</w>
N ov
N gh
M ed
Ch o</w>
Đ ộ</w>
ó p</w>
t ố
re duc
po wer</w>
ph one</w>
of ten</w>
nay .</w>
n ữa</w>
l ĩnh</w>
gi ấy</w>
cen ter</w>
c á
c ra
b ir
ashi ng
Yor k</w>
W ashing
T w
Saig on</w>
O b
M an
Eng lish</w>
̀ ng</w>
vi si
vi r
ur s
th ậm</w>
t ồn</w>
se e
non -
h om
gr ad
en ted</w>
dis eases</w>
Th urs
D on
A ir</w>
9 0</w>
the ast</w>
th ái</w>
so ft</w>
si ons</w>
respon se</w>
repor ts</w>
nă m.</w>
ment al</w>
li ving</w>
kh ắp</w>
g ame</w>
esp ec
espec ially</w>
co st</w>
ang ,</w>
an a</w>
a ver
Thurs day</w>
Rus sia</w>
Af ric
ứ c,</w>
tr ừ</w>
t on
susp ected</w>
suc c
str e
servi ce</w>
r o</w>
pric es</w>
ph y
loc k
h i</w>
gi ết</w>
es ted</w>
ep t</w>
employ ees</w>
ch ứa</w>
bre ak
b ar
Res ear
Ph u</w>
O c
B ar
An d</w>
ủ i</w>
ầ n.</w>
ườ ng,</w>
vi a</w>
v ợ</w>
sm all</w>
lo ạt</w>
kh ởi</w>
ic s</w>
ho ãn</w>
hel d</w>
h ô</w>
g ắng</w>
f ish
evi d
en ding</w>
di tions</w>
ch ú
ch í
bu ý
Jap anese</w>
H iệp</w>
ẹ p</w>
đ áp</w>
đ a</w>
ti sh</w>
s ạn</w>
r ừng</w>
pollu tion</w>
pa rents</w>
p rice</w>
nă m,</w>
m ới.</w>
logi cal</w>
fin d</w>
ell ing</w>
dec ided</w>
chu ỗi</w>
ch a</w>
c ường</w>
ab ility</w>
V ới</w>
US $</w>
Pac ific</w>
Institu te</w>
D ec
Co V</w>
C ộng</w>
3 4</w>
đ ấ
v ari
us es</w>
to o</w>
s ốt</w>
s am
ren ce</w>
ph o
ond on</w>
l âm</w>
l as
k now</w>
hiể m</w>
h ải</w>
f a
e o</w>
de partment</w>
ch óng</w>
b ước</w>
U N
T o</w>
S ở</w>
Nộ i,</w>
M icro
L ondon</w>
Ger many</w>
G overnment</w>
ASEA N</w>
w an</w>
th ất</w>
t ờ</w>
stat ement</w>
ru n
pos sible</w>
popu lar</w>
po t
pl an</w>
inter net</w>
in j
i ngs</w>
hi ên</w>
g overn
d ừng</w>
d uy
col l
a z
U K</w>
T ai
Reu ters</w>
Is ra
Bri tish</w>
Bra z
. .
t ái</w>
star ted</w>
star t</w>
sit uation</w>
s ứ</w>
ph á
ng ân</w>
mo ther</w>
ir atory</w>
g óp</w>
decis ion</w>
d ge</w>
ac ter
Dan ang</w>
D o
B e
1 ,000</w>
wor ks</w>
war ds</w>
w ant</w>
v enti
tem per
re pres
proc ess</w>
pri v
p ay</w>
n inh</w>
high est</w>
fe el</w>
epid emic</w>
en ough</w>
c ận</w>
b ức</w>
aver age</w>
at s</w>
al ready</w>
W ith</w>
Tr ần</w>
Ph át</w>
Com p
A ID
5 ,</w>
x uyên</w>
tr u
tr illion</w>
to day</w>
ter n</w>
si mil
s qu
r ing</w>
no ted</w>
manu fac
l ộ</w>
in te
i k
fir m</w>
fac ilities</w>
f ever</w>
emer gency</w>
di ngs</w>
d en
d ate</w>
ac y</w>
ac tion</w>
You Tu
Ving roup</w>
T ổ</w>
M ặc</w>
8 0</w>
â n.</w>
trans mission</w>
tic s</w>
thị t</w>
ter m</w>
su per
sa i</w>
provi de</w>
pil o
ph ố
ph ù</w>
low er</w>
li ve</w>
lea ding</w>
l d
j ects</w>
h ôn</w>
grow th</w>
con trac
comm on</w>
ch ặt</w>
ca use</w>
bệ nh.</w>
busin esses</w>
be gan</w>
b ảy</w>
b est</w>
b ed</w>
a ch</w>
Air port</w>
0 .
tur al</w>
s ợ</w>
out side</w>
o il</w>
ni fic
ng ôi</w>
manag ement</w>
l ợ
ke y</w>
de puty</w>
c ả
c lim
be g
av ail
at ures</w>
al ong</w>
K ể</w>
H ội</w>
H án</w>
E ar
ạ p</w>
ườ ng.</w>
v ũ</w>
th ink</w>
territ ories</w>
t ea
st oc
s óng</w>
pre sid
plac ed</w>
nh u
lev els</w>
i de
g ra
f o
ever y
esti c</w>
es ,</w>
ea d</w>
e re
d ic
curren tly</w>
cl in
c ru
ap pro
4 5</w>
2 .</w>
. m.</w>
ú i</w>
th ể
scienti sts</w>
pp ing</w>
ne igh
li ves</w>
k m</w>
g ấp</w>
g ar
ch ạy</w>
al most</w>
Oc to
Nor th</w>
Ap ple</w>
1 .</w>
vi ết</w>
v y</w>
ti êm</w>
s âu</w>
s trong</w>
pl ant</w>
nh ấn</w>
ngoá i,</w>
ng ừng</w>
n ation</w>
m àu</w>
in ation</w>
h and
evid ence</w>
dist ancing</w>
cid ent</w>
at ors</w>
al d</w>
ad dition</w>
Washing ton</w>
T ra
Euro pe</w>
E m
COVID-19 .</w>
đâ y,</w>
đ ới</w>
vi l
t ô
t ons</w>
sig nific
s ông</w>
s w
ra .</w>
phy si
n ối</w>
lab or
l à
h ealth
grow ing</w>
con ditions</w>
c ậu</w>
c au
buý t</w>
bri nging</w>
bi gg
ap p</w>
V à</w>
US D</w>
Tok yo</w>
S ch
S -
Ph úc</w>
Par is</w>
Octo ber</w>
M y
G e
5 .
x a</w>
v ượt</w>
tr ọ
tr ú</w>
th ưởng</w>
th á
stud ent</w>
star ting</w>
sou thern</w>
resp iratory</w>
requi red</w>
r ủi</w>
n orm
form er</w>
f oo
de li
consi dered</w>
com b
chi ều</w>
b ão</w>
V ì</w>
Pu b
Par k</w>
P l
N ep
E ast</w>
B C</w>
4 ,
3 7</w>
19 7
th iểu</w>
s ắc</w>
s le
s cre
pres s</w>
kil led</w>
ho t
h uyết</w>
do w
cl ear</w>
chu ́ng</w>
ch ar
cam pa
c ou
bi o
avo id</w>
avail able</w>
T ập</w>
Sou theast</w>
S á
Ng hiên</w>
M as
L e</w>
Kỳ .</w>
Dis ease</w>
D ịch</w>
Ủ y</w>
̃ ng</w>
ô ng
visit ors</w>
tr ao</w>
retur n</w>
re ven
re comm
qu a,</w>
nướ c,</w>
mì nh,</w>
lạ i.</w>
họ c,</w>
h ạng</w>
gi ve</w>
ess ential</w>
dis charged</w>
custom ers</w>
ch ồng</w>
cas t</w>
c ar</w>
b ạ
ag re
Xu ân</w>
Tw o</w>
T V</w>
St ar
S áu</w>
Pak istan</w>
Nov ember</w>
M er
G r
Euro pe
CD C</w>
B ạch</w>
B rit
6 .
4 3</w>
đ ám</w>
vacc ines</w>
tạ p</w>
t ụ</w>
t ổn</w>
rec overed</w>
r ác</w>
pro bl
ob s</w>
n e</w>
min u
med ic
m ới,</w>
k ẻ</w>
issu ed</w>
h ương</w>
b le
b ers</w>
arri ved</w>
am a</w>
Tr ang</w>
Th ông</w>
Th i</w>
Pub lic</w>
Phu c</w>
Ng uyên</w>
Micro soft</w>
vậ y,</w>
vi sa</w>
v es
tu ally</w>
te red</w>
te l</w>
sho ws</w>
s mar
re co
lat est</w>
l òng</w>
khu ẩn</w>
kh ảo</w>
ill s</w>
hou se</w>
gi ả
g ni
fi ght</w>
ex pl
estim ated</w>
dom estic</w>
develo p</w>
de vi
al y
ag en
ad mitted</w>
ac tions</w>
YouTu be</w>
V ương</w>
Tr an</w>
T ư</w>
H ã
Europe an</w>
Com mit
8 00</w>
đ ổ</w>
web site</w>
touris m</w>
thu ế</w>
thi ngs</w>
tem por
t as
simil ar</w>
res s</w>
mu si
mil itary</w>
hơ n,</w>
h er
g rou
e g
develop ing</w>
com es</w>
ch ế
c à</w>
bec ame</w>
ay ,</w>
ap er</w>
Tai wan</w>
T an</w>
S i
E n
% .</w>
ị p</w>
đ eo</w>
đ au</w>
v í</w>
tr ụ</w>
se qu
ro bo
ri ghts</w>
restric tions</w>
probl ems</w>
pe ti
ou ght</w>
orig in
l ịch
l ar
in iti
im medi
h ạ
h un
er y</w>
ec ti
dư ỡng</w>
do m</w>
d in
cu ̃ng</w>
ch ân</w>
c ris
b ối</w>
ang e</w>
agen cies</w>
T ân</w>
T hai</w>
H àng</w>
G roup</w>
C up</w>
3 3</w>
ư ới</w>
đồ ng.</w>
đ ột</w>
đ ích</w>
vie w</w>
ve h
v àng</w>
th ê
t om
s .</w>
re li
r ượ
pers onal</w>
par ts</w>
le ft</w>
hea vy</w>
ha vi
b ầu</w>
approv ed</w>
a red</w>
S ci
K inh</w>
Comp any</w>
201 5</w>
ụ y</w>
ụ t</w>
đ ượ
đ êm</w>
đ e</w>
veh ic
ti on
th ảo</w>
struc tion</w>
sh are</w>
sch edu
re duce</w>
re al</w>
r .</w>
previ ous</w>
oper ations</w>
oc cu
li ght</w>
kh ích</w>
g ạo</w>
g ether</w>
f ru
er gy</w>
ent ers</w>
ch ị</w>
b ào</w>
b es</w>
atur al</w>
air s</w>
ag no
ac u
Nh a</w>
Gi áo</w>
Dis eases</w>
8 .
6 5</w>
3 8</w>
Đ ồng</w>
v ắc</w>
th ổ</w>
t ốc</w>
t ệ</w>
su ốt</w>
sto p</w>
ru n</w>
qu ảng</w>
nhà .</w>
ngh e</w>
nec ess
n ear</w>
ministr ation</w>
mark ets</w>
lea ve</w>
kh ám</w>
kh uyên</w>
i :</w>
high er</w>
grou ps</w>
exam ple</w>
enter ing</w>
en ces</w>
d a
bor n</w>
bi g</w>
ac tive</w>
a w
Sam sung</w>
Don ald</w>
Commit tee</w>
C ục</w>
Ba ch</w>
5 %</w>
0 ,
Đ ể</w>
y et</w>
việ n.</w>
tu ân</w>
t ain
st e
sa ying</w>
regul ations</w>
re ally</w>
r ơi</w>
ph án</w>
me tho
me ans</w>
kh ẳng</w>
j obs</w>
individu als</w>
in ten
imp act</w>
gi ác</w>
duy ệt</w>
d ra
comm it
c ement</w>
b ảng</w>
S ố</w>
L ê</w>
L a</w>
G re
Co V
Can ada</w>
ộ n</w>
ầ n,</w>
Ú c</w>
x âm</w>
ti ềm</w>
ti fic
s ong</w>
o l</w>
ly mp
l ượt</w>
l á</w>
h át</w>
g oods</w>
fu ture</w>
ex ten
ell s</w>
dịch .</w>
ch áy</w>
cel eb
c an
b oo
ang u
an cial</w>
T en
S ài</w>
S ince</w>
Ph ú</w>
Ph i</w>
M a
5 ,
đ ẹp</w>
ù ng,</w>
è o</w>
z ed</w>
w il
tu al</w>
tr ích</w>
ti ểu</w>
th ai</w>
supp ly</w>
sp e
se en</w>
ro ad</w>
rea ched</w>
p ed</w>
mul ti
mo b
lea d</w>
laun ched</w>
l et
l an
ke ep</w>
in a</w>
hum ans</w>
hist ory</w>
go t</w>
f y</w>
f re
environ ment</w>
en sure</w>
eff ective</w>
des ig
ch ẳng</w>
c ấ
ap pe
an ted</w>
acti v
Yo u</w>
T ính</w>
T ur
T P
Po li
O lymp
K ông</w>
In d
H òa</w>
đ ương</w>
wh ether</w>
t ù</w>
se x</w>
s ex
reco gni
qu anh</w>
p ay
offic e</w>
o ng
loc alities</w>
lit tle</w>
lear ning</w>
gh ter</w>
gen eral</w>
for ni
follow ed</w>
ex ic
e y
e li
chi ếu</w>
bu ôn</w>
bu y</w>
bu s</w>
be havi
b ánh</w>
an k
ali forni
ag ain</w>
a vi
Th ụy</w>
M us
Dec ember</w>
C aliforni
visit ed</w>
th ủy</w>
st and</w>
sh u
se as
s ắp</w>
rou ght</w>
rest aur
p ing</w>
p ic
ngoá i.</w>
ld wide</w>
l ack</w>
isol ation</w>
inclu ded</w>
im pl
i ."</w>
gi án</w>
gi a,</w>
ffe red</w>
f all
equi pment</w>
di an</w>
di agno
de l</w>
d ọ
d ly</w>
d le</w>
ch ữa</w>
canc el
b ày</w>
b a
at or</w>
ann ing</w>
anim als</w>
Th u</w>
N et
M exic
Isra el</w>
H ou
C A
6 00</w>
shi ps</w>
sa w</w>
rest ed</w>
pres sure</w>
pot ential</w>
posi tion</w>
ph ối</w>
o c</w>
nh ớ</w>
ng àn</w>
m ật</w>
h ere</w>
fri ends</w>
ex c
de f
bigg est</w>
b ữa</w>
ar ds</w>
Ph òng</w>
Ph á
Ne ws</w>
L ast</w>
D ương</w>
5 .</w>
4 .</w>
ấ c</w>
us ually</w>
tuy ệt</w>
thi ên</w>
pub lished</w>
priv ate</w>
on ce</w>
nhậ n.</w>
mar k</w>
ga ther
g ue</w>
g es</w>
fa ther</w>
f all</w>
es ts</w>
ec ting</w>
det er
dec la
ch air
biết :</w>
b all</w>
a o
Xu an</w>
V u</w>
M u
H ar
Fore ign</w>
F i
E l
Cu ộc</w>
7 .</w>
5 4</w>
ụ p</w>
v ẻ</w>
th ần</w>
t ảng</w>
t ai</w>
rem ain</w>
qu ý</w>
our ces</w>
necess ary</w>
mat er
l ỗi</w>
in ed</w>
ig r
identi fied</w>
decla red</w>
cra ft</w>
con tribu
con sum
com peti
clin ical</w>
b ea
af ter
Te ch
S o</w>
Or ganiz
N H
M il
H ue</w>
D ự</w>
D el
C ùng</w>
Ba c</w>
B ei
.. .</w>
“ Tôi</w>
ự c.</w>
ũ i</w>
uy nh</w>
ul ture</w>
touris t</w>
th ấ
t ỏa</w>
t ám</w>
spo k
spec ial</w>
sp ort</w>
so on</w>
ris e</w>
r ằ
pro duce</w>
pre vention</w>
or gan
n iệm</w>
n ine</w>
lợ n</w>
lu ôn</w>
li es</w>
l ựa</w>
l ục</w>
kil om
jo b</w>
ho li
h ạt</w>
h and</w>
gre at</w>
gi ành</w>
get ting</w>
fer red</w>
ex pres
er ous</w>
en ced</w>
em ents</w>
difficul t</w>
de al</w>
comp ared</w>
Tru ong</w>
N ă
Ind us
Ge or
G ia</w>
Ch ỉ</w>
Cam pu
B y</w>
3 2</w>
ộ ,</w>
đ úng</w>
ê n
wi fe</w>
wea ther</w>
v a</w>
to à
th ắng</w>
st or
ser v
por t
plas tic</w>
n ations</w>
l àng</w>
kh á</w>
inst ead</w>
hã y</w>
gr ound</w>
en try</w>
econom y</w>
du ng</w>
do cu
campa ign</w>
c s</w>
buil ding</w>
bo ard</w>
am oun
Cam bo
C ảnh</w>
C on</w>
B ang
2 7
tr ị
thu ê</w>
th ụ</w>
th ận</w>
t ỏ</w>
t ầ
stan ding</w>
se a</w>
s old</w>
qu a.</w>
me et</w>
ma z
m er</w>
le t</w>
id es</w>
họ ,</w>
ha m</w>
gir l</w>
ful l</w>
fiel d</w>
dọ a</w>
d ụ</w>
d au
cu t</w>
cris is</w>
cre ate</w>
con duc
ch ờ</w>
c le
as h</w>
ad van
ac ity</w>
Wh ile</w>
Th ứ</w>
Th ương</w>
T hat</w>
Ph ong</w>
Nộ i.</w>
Nh ân</w>
My an
I ran
Ho ang</w>
H iện</w>
H i
D ung</w>
C ar
​​ sẽ</w>
tra ditional</w>
tr uy</w>
th ro
t arg
syst ems</w>
sam ples</w>
s ửa</w>
ph óng</w>
nh ờ</w>
n ame</w>
il legal</w>
h ồ</w>
f arm
cu lar</w>
coronavirus .</w>
ch ẩn</w>
carri er</w>
c ục</w>
b ãi</w>
b acter
ar ily</w>
Sy ri
O ther</w>
M y</w>
Kh u</w>
Is lands</w>
H is</w>
H igh
De puty</w>
Braz il</w>
8 .</w>
6 ,
201 1</w>
ế n,</w>
tr ade</w>
th ous
t án</w>
repres ent
r út</w>
presid ent</w>
p ical</w>
on ,</w>
nh ân,</w>
ngoà i.</w>
ngo ái</w>
lock down</w>
lo nger</w>
la w
kilom et
j ing</w>
in o</w>
in cident</w>
h ơi</w>
gi ấc</w>
gen ce</w>
f ron
ex po
ev ed</w>
esti val</w>
en ter</w>
dre ds</w>
ch ỗ</w>
acc ess</w>
a i.</w>
W i
W al
Tư .</w>
Tro pical</w>
SAR S-
S er
P hi
M ore</w>
M ad
G lobal</w>
0 ,</w>
x u</w>
visi t</w>
th ẩm</w>
th ao</w>
t ô</w>
succ ess
qu ick
pro ve</w>
ng ữ</w>
ng ủ</w>
nation als</w>
mob ile</w>
ma ch
m ôn</w>
m es
lin ked</w>
kh ổng</w>
kh ối</w>
k ê</w>
inf lu
increas ing</w>
f oun
en n
eff orts</w>
doc tor</w>
disc overed</w>
con struction</w>
comm er
co t
clim ate</w>
chair man</w>
ch em
c y
a im
Pre vention</w>
O ffic
Nep al</w>
L ao</w>
F ren
Ch ung</w>
B áo</w>
AID S</w>
201 4</w>
ự u</w>
val ue</w>
v é</w>
u tion</w>
t ầm</w>
stoc k</w>
some thing</w>
sh ort
sh ar
ser ious</w>
rượ u</w>
pro mo
pre gn
ph ận</w>
ph út</w>
or ing</w>
on a
nó .</w>
n ur
n al</w>
m ember</w>
kh ông.</w>
iệ n,</w>
invol ved</w>
il ies</w>
gi ờ
en se</w>
e ve</w>
des tin
d el
cur rent</w>
coo per
ch ain</w>
b anned</w>
Tri ều</w>
S tre
S te
Organiz ation</w>
O f</w>
M is
Lo an</w>
F rom</w>
Ch ris
Bei jing</w>
wor ldwide</w>
wee k
tí nh.</w>
th ác</w>
sha res</w>
r ap
poin t</w>
nhu ận</w>
minis ter</w>
mar ri
ind ic
h y</w>
g ói</w>
fe rence</w>
f em
de x</w>
c ử
c ô
c ân</w>
c ing</w>
as h
am id</w>
ac ts</w>
Viet j
T wit
Resear ch</w>
Du b
D inh</w>
5 5</w>
2019 ,</w>
đó n</w>
á n.</w>
w ro
w al
virus .</w>
u n</w>
tầ ng</w>
tr ời</w>
ti n.</w>
th ú</w>
st er</w>
st ated</w>
spok es
sig ned</w>
sa fe</w>
ra ised</w>
ph ương.</w>
or dered</w>
nam ed</w>
m ơ</w>
m ain</w>
lea ders</w>
l oro
im prov
ig ners</w>
g e
fin ancial</w>
e ducation</w>
d ang
concer ns</w>
ch ối</w>
c ir
b on</w>
at trac
as soci
anh ,</w>
] "</w>
SARS- CoV
S il
Mỹ ,</w>
Mo sco
L ea
L ai</w>
Fren ch</w>
B ir
Associ ation</w>
7 00</w>
6 .</w>
5 3</w>
20 21</w>
" ['
Đ ối</w>
ì nh.</w>
vil l
tr em
st ay
se as</w>
pro ble
proble m</w>
ph ẫu</w>
num bers</w>
m ar</w>
li gh
kh í
is m</w>
họ c.</w>
ho wever</w>
fol low</w>
fam ilies</w>
f requ
ev ent</w>
elec tr
dow n
d ạy</w>
contin u
ch e
atten tion</w>
air craft</w>
ab o
a th
V A
Qu ận</w>
N ông</w>
Med ical</w>
Me k
M ac
H ơn</w>
D evelo
B ru
Air ways</w>
A maz
ự c,</w>
w on</w>
vi s
to gether</w>
the m
ta x
st ore
sour ces</w>
regi ons</w>
r ates</w>
quick ly</w>
pres ent</w>
ph ones</w>
pers on
over y</w>
norm al</w>
mak es</w>
loro qu
l uyện</w>
l angu
l ai</w>
kh ử</w>
k ,</w>
inves tment</w>
i a,</w>
en ergy</w>
eff ect</w>
d ã</w>
ch ấn</w>
cap acity</w>
br ing</w>
b rain</w>
an i</w>
am bo
ag ric
a chi
Tr an
T ết</w>
K .</w>
H ồi</w>
E C
D u</w>
B ảo</w>
B ạn</w>
B us
Af gh
""" Bệnh</w>
’ re</w>
ế ng</w>
đ ỡ</w>
à ,</w>
vari ous</w>
ti ous</w>
th ừa</w>
tel li
su ff
sour ce</w>
sev ere</w>
sal es</w>
s cal
ro om</w>
qu es
pl ay</w>
ph ủ
nh ựa</w>
main land</w>
m ét</w>
m it</w>
l ọc</w>
l ái</w>
k ra
issu es</w>
ic ally</w>
ho ld</w>
fail ure</w>
exp lo
ex por
ess ed</w>
er o
ei ther</w>
d one</w>
con dition</w>
ci p
chang es</w>
canc er</w>
ati ves</w>
ar rested</w>
al ways</w>
air port</w>
ag ency</w>
ac qu
Vin F
Tư ,</w>
Stre et</w>
SARS-CoV -
Nẵ ng,</w>
M or
H ol
Develo pment</w>
D uring</w>
B ud
B er
Americ a</w>
ờ i,</w>
đ ốt</w>
đ ào</w>
ù i</w>
vu i</w>
tuổ i.</w>
tr ấn</w>
tr uc
seas on</w>
s c
recei ve</w>
r ồi</w>
progr am</w>
poin ts</w>
op ened</w>
nà o.</w>
nhau .</w>
n ão</w>
n ever</w>
mes sa
imm une</w>
ho ang</w>
h ind</w>
gi a.</w>
foo t
fir e</w>
f ell</w>
f ast</w>
expo sure</w>
ex port</w>
el a</w>
d à
c ks</w>
c all</w>
bệ nh,</w>
b ăng</w>
V ene
Tim es</w>
T ouris
Rus sian</w>
P er
H ai,</w>
Du c</w>
C ả</w>
A li
8 ,
4 2</w>
ứ c.</w>
Đ ến</w>
zer b
zerb ai
zerbai j
vehic les</w>
transp ort</w>
tr ad
to wn</w>
ti ệ
t ả</w>
schedu led</w>
or ity</w>
on ia</w>
oc cur
mo del</w>
lo ss</w>
le ge</w>
kh ắc</w>
k g</w>
is ts</w>
illi ons</w>
ill a</w>
i ght</w>
holi day</w>
ea red</w>
da ily</w>
d ần</w>
ch er</w>
c ộ
c o</w>
bir th</w>
bec om
be hind</w>
ac ted</w>
U kra
Pr inc
Mek ong</w>
L inh</w>
K hoa</w>
E U</w>
Californi a</w>
C N
Americ ans</w>
Afric a</w>
A zerbaij
7 .
2 3
1 50</w>
đâ y.</w>
Đ ó</w>
ê nh</w>
z u
wa ve</w>
th ẳng</w>
t ắc</w>
sit es</w>
signific ant</w>
si b
s en</w>
s cen
ro le</w>
qu e</w>
prot ect</w>
po se</w>
po or</w>
nữ a.</w>
nu ôi</w>
nhấ t.</w>
nh ắc</w>
musi c</w>
l ương</w>
investig ation</w>
in tro
ill ance</w>
h ing</w>
h ard</w>
f our
ec u
di g
co ffee</w>
ch ụp</w>
ch ẽ</w>
ch alle
cen tr
c ặp</w>
at ch</w>
ambo o</w>
Vietj et</w>
Th o
N ig
N ations</w>
L an,</w>
High lands</w>
G òn</w>
Cambo dia</w>
' ]</w>
ợ p</w>
ver si
venti lat
to x
thous ands</w>
th ách</w>
t ới.</w>
t ting</w>
sp ea
s ses</w>
nor th</w>
no on</w>
nhậ n,</w>
mạ ch</w>
m en
l ồ</w>
l ý
iệ n.</w>
is ting</w>
in ess</w>
immedi ately</w>
gi á
fish ing</w>
experi ence</w>
es si
dru gs</w>
com pu
ch ỉnh</w>
ch a
cer tain</w>
b ờ</w>
b ố
b ạc</w>
b rought</w>
ay .</w>
app lic
Vi nh</w>
Mosco w</w>
H án,</w>
Chi ến</w>
201 2</w>
00 0
% ,</w>
“ Chúng</w>
ậ y</w>
́ c</w>
độ ng.</w>
đ ồn</w>
xu ng</w>
typ es</w>
tu res</w>
t ận</w>
t ôn</w>
surve y</w>
store s</w>
st ly</w>
sk in</w>
s ph
quar ter</w>
plan e</w>
pl at
p ack
ng uyện</w>
nee ds</w>
n ấu</w>
minu tes</w>
m ẽ</w>
lạ i,</w>
le y</w>
l ẻ</w>
l ạm</w>
ké m</w>
inves tors</w>
in king</w>
i m</w>
hun dreds</w>
hom es</w>
ho àng</w>
health care</w>
gre ater</w>
en jo
en cour
el t</w>
d òng</w>
d ,</w>
buil t</w>
bro ad
ber g</w>
b ả
b iệ
anh .</w>
al low</w>
al leg
ak es</w>
ag ing</w>
ad ver
ad ding</w>
Ti ến</w>
Sec urity</w>
Ng ọc</w>
F I
Comm une</w>
A ng
7 5</w>
6 6</w>
5 7</w>
' re</w>
ậ n,</w>
Đ ức,</w>
wor ked</w>
wh y</w>
war ned</w>
v als</w>
u red</w>
typ e</w>
ti ce</w>
ta x</w>
t ol
str eng
st ore</w>
st and
some one</w>
sec tor</w>
s mo
progr ams</w>
pr acti
po p</w>
physi cal</w>
p ne
or i
ng ồi</w>
n úi</w>
n atural</w>
loo k</w>
li ed</w>
l am
i .',</w>
gi ó</w>
g one</w>
fore igners</w>
ff airs</w>
fem ale</w>
fac t</w>
f le
f ig
er c
e -
dịch ,</w>
cu s</w>
coronavirus ,</w>
bea u
b ại</w>
b ar</w>
ar t</w>
an ks</w>
ad s</w>
Ti ên</w>
TP .
Sp ain</w>
Ph ạm</w>
Nig er
Myan mar</w>
K u
For bes</w>
F in
B ài</w>
B amboo</w>
Associ ated</w>
Al so</w>
A ffairs</w>
9 ,</w>
201 3</w>
1 3
0 s</w>
ế n.</w>
độ ng,</w>
wat ers</w>
us b
tr ữ</w>
tr ồng</w>
tr aining</w>
te ch</w>
sel ves</w>
ris ks</w>
rele ase</w>
pro per
previ ously</w>
pilo t</w>
nhấ t,</w>
n ổ</w>
mì nh
k et</w>
ill ing</w>
h o</w>
gra ph
gi ãn</w>
g am
fin al</w>
fac t
disc us
dau ghter</w>
d ược</w>
cri tical</w>
claim ed</w>
ch loroqu
c ăng</w>
ass y</w>
ad ul
a di
W e
VinF ast</w>
V í</w>
Tr ên</w>
S ho
Ital ian</w>
I m
H ợp</w>
G ames</w>
Bir x</w>
Au thor
A gency</w>
5 2</w>
' ,</w>
ờ i.</w>
ớ t</w>
ố c,</w>
ế t.</w>
ư ,</w>
è n</w>
Ý ,</w>
w ar</w>
tr ying</w>
th ờ</w>
tempor arily</w>
telli gence</w>
surve illance</w>
si nger</w>
sh ort</w>
ret ary</w>
rem ov
rem ains</w>
prot ective</w>
pro te
nhau ,</w>
nh ân.</w>
new sp
m us
m ale</w>
loo king</w>
langu age</w>
l ệ
l ạnh</w>
l iệt</w>
j u
it co
issu e</w>
is ing</w>
ir st</w>
ho tel</w>
fun c
four th</w>
fin ed</w>
f lu
evi sion</w>
ev en
en z
dis trict</w>
dam age</w>
d ou
cou ple</w>
chí n</w>
ca o.</w>
b ene
anti -
ang .</w>
ad ditional</w>
W om
USD )</w>
Twit ter</w>
Star bu
S an
Poli ce</w>
N hat</w>
HCM ,</w>
Ger man</w>
C a
B ảy</w>
ậ n.</w>
ơ m</w>
đồ ng,</w>
Đ an</w>
Đ a</w>
w ear</w>
trans ferred</w>
tr iể
ti ên,</w>
th ought</w>
t ou
sha red</w>
ser ies</w>
s ẻ
s n
s et
ru p
ris ing</w>
read ing</w>
pur ch
pri me</w>
poli cy</w>
ov a</w>
ng ắn</w>
m oun
loc ated</w>
leg ally</w>
kilomet ers</w>
h uy</w>
gather ings</w>
for ms</w>
ex trem
er t</w>
con sid
co ho
c ú
after noon</w>
ab road</w>
Th ổ</w>
T ài</w>
Quố c
Nh ĩ</w>
Mo st</w>
Mer cy</w>
L oc
Hou se</w>
H ung</w>
Gi ải</w>
C as
Bả n,</w>
B ên</w>
Afgh an
8 5</w>
7 ,
6 4</w>
5 ,000</w>
4 4</w>
3 ,000</w>
̣ c</w>
vo ng.</w>
v ải</w>
u r</w>
tí nh,</w>
tur ing</w>
temper atures</w>
te a</w>
str ate
so f
se ly</w>
s ắt</w>
res ources</w>
represent ative</w>
reas on</w>
re f
r àng</w>
r as
prof it</w>
po w
pl om
ph ức</w>
ow ned</w>
organiz ations</w>
nh ẹ</w>
newsp aper</w>
nee ded</w>
multi ple</w>
mo der
m ềm</w>
m àn</w>
loc k</w>
lo st</w>
la ws</w>
l ú
l y.</w>
in ning</w>
ide a</w>
i p
i ed</w>
h ó
gr am</w>
fore cast</w>
for med</w>
ex erc
ecti vely</w>
e u
d ance</w>
complet e</w>
ch an
c ôn</w>
c am</w>
bi ể
b í</w>
b s</w>
announ cement</w>
an cy</w>
Tr ái</w>
S cot
P C
O S</w>
F l
B ank</w>
B BC</w>
Amaz on</w>
A m
4 6</w>
201 8,</w>
2. 5</w>
00 ,000</w>
ị nh</w>
ắ c,</w>
đị nh.</w>
đầ u,</w>
đ ô
Đ ầu</w>
ă ng.</w>
z one</w>
w anted</w>
viru ses</w>
vi ce</w>
tu ần.</w>
tri als</w>
tr o</w>
them selves</w>
t ặng</w>
sy cho
sig ns</w>
s em
robo t</w>
qu ả
post p
pne um
over seas</w>
ou l</w>
me an
m y
m unic
lo sses</w>
impor ted</w>
im prove</w>
im posed</w>
hà ng,</w>
hou se
h usb
gu id
gre es</w>
for ce</w>
fac ility</w>
f r
f lo
f ear</w>
estab lished</w>
eff ects</w>
e e</w>
de grees</w>
challe ng
ch ắc</w>
cancel led</w>
b á
att ac
ar ti
al ized</w>
ab les</w>
a .m.</w>
Y ear</w>
W hat</w>
Touris m</w>
Par ty</w>
P ress</w>
P om
P M</w>
Kh ánh</w>
Hã ng</w>
F irst</w>
Ear lier</w>
Dub ai</w>
Cor ona
Co ffee</w>
Ch u
Bud d
9 .
4 1</w>
3 6
1 .000</w>
xa 0</w>
w ing</w>
th ỏa</w>
sur pris
su n
su ffered</w>
st ation</w>
st age</w>
sp end</w>
se l</w>
respon sible</w>
recei ving</w>
re v
pro mis
pre par
per form
pa id</w>
no ther</w>
nhà ,</w>
ne l</w>
n ỗi</w>
lịch ,</w>
l ắng</w>
ist ance</w>
imm igr
i ons</w>
hộ i,</w>
hi ếm</w>
h ands</w>
gi àu</w>
fron t</w>
fri end</w>
fic ation</w>
concer n</w>
claim s</w>
chú ng.</w>
ch ở</w>
ch út</w>
ch ó</w>
ca re
c le</w>
c ells</w>
beli eve</w>
an aly
advi sed</w>
ad es</w>
activ ity</w>
abo ve</w>
W il
Vene zu
T u</w>
S tu
Phu ong</w>
P ol
D en
Chris t
COVID-19 ,</w>
B ro
A nother</w>
A b
9 5</w>
4 9</w>
2 ,000</w>
ề n,</w>
đu a</w>
ve get
tu re
tr ạm</w>
th uyết</w>
t á</w>
spec i
ser ve</w>
sa u,</w>
s ó
restaur ants</w>
rel ation
r ối</w>
qu en</w>
produc t</w>
pas sed</w>
p ite</w>
o ngo
ongo ing</w>
o d
ng ạc</w>
net work</w>
neigh b
me t</w>
m ã</w>
m em
lu ng</w>
low ing</w>
lo ve</w>
li cen
lear n</w>
labor atory</w>
l ược</w>
l ets</w>
kh óa</w>
k ind</w>
impl em
ic k</w>
fil m</w>
fac tors</w>
f ish</w>
ex ports</w>
en sive</w>
dro p</w>
di plom
des pite</w>
d ol
cre ated</w>
corona .</w>
cor e</w>
coho l</w>
chi ef</w>
beg inning</w>
arri ving</w>
app eared</w>
amoun t</w>
ain t</w>
advan t
\ xa0
Tho se</w>
Syri a</w>
R ất</w>
Ph ương</w>
Ob ama</w>
K iểm</w>
K hoảng</w>
I C
H ầu</w>
H er
CA A
C oun
Brit ain</w>
AF F</w>
A nh.</w>
8 8</w>
4 7</w>
"" Bệnh</w>
ế t,</w>
ế ,</w>
ả i,</w>
́ t</w>
đ ậu</w>
đ o</w>
đ iể
ă n.</w>
wil d
who se</w>
việ n,</w>
vir al</w>
vic tim
v à
um e</w>
tre at</w>
tr e</w>
th ổ
th iệu</w>
t ử
t ỉ
sugg ested</w>
sou th</w>
s ữa</w>
s ell</w>
reas ons</w>
rea ch</w>
ra u</w>
proc edu
procedu res</w>
pro posed</w>
pneum onia</w>
p at
oun d
or d
off er</w>
n ề</w>
m iệ
lim ited</w>
khu ôn</w>
k in
k es</w>
inclu des</w>
in stitu
gi ous</w>
gen e
g ing</w>
fir ms</w>
f at
ess ing</w>
es tern</w>
e at</w>
dis h</w>
desig ned</w>
d ây</w>
d ates</w>
cầ u,</w>
con f
chloroqu ine</w>
chang ed</w>
ch ợ</w>
car bon</w>
cam er
ca uses</w>
c ựu</w>
c ough</w>
br and</w>
beli eved</w>
bab y</w>
b uy
ap ps</w>
a j
Vi et</w>
Su n</w>
Sch ool</w>
Princ ess</w>
Par ac
Mỹ .</w>
I O
Hy e</w>
H ang</w>
D ân</w>
9 ,
7 3</w>
ứ t</w>
tr ốn</w>
tr ầm</w>
tr ường.</w>
tr aff
traff ic</w>
tol l</w>
temper ature</w>
t our</w>
sy n
stu dies</w>
st er
st ar</w>
spo t</w>
spec ies</w>
sp ent</w>
sho p</w>
sex ual</w>
scal e</w>
res h</w>
provi ded</w>
produc ed</w>
pro jects</w>
pl anned</w>
ph ương,</w>
p sycho
ow ner</w>
or ders</w>
oper ating</w>
nó i:</w>
nó i.</w>
ngh ề</w>
n ắng</w>
iz e</w>
itco in</w>
imm unity</w>
i ds</w>
husb and</w>
gh é</w>
fi f
ess or</w>
dea d</w>
de pres
cu ốn</w>
con su
con s
ch àng</w>
air ports</w>
accoun t</w>
Tr ade</w>
Thu an</w>
Th om
R om
R ob
J e
G D
Corona virus</w>
ề u.</w>
ậ t,</w>
ấ t,</w>
w rit
versi ties</w>
under stand</w>
tí n</w>
tur n</w>
throu gh
ter ms</w>
tak es</w>
t ù
sti cs</w>
st ory</w>
smar t
sig n</w>
si ng
se par
s elling</w>
rằ ng,</w>
reduc ed</w>
r ửa</w>
r ound</w>
ph ụ
p en
oper ation</w>
monit oring</w>
mo vi
mid dle</w>
m ộ</w>
m as</w>
loc ation</w>
lim it</w>
li f
la )</w>
k ịch</w>
k ar
in t</w>
i or</w>
ho st</w>
h or
f loo
en e</w>
dụ ,</w>
do or</w>
direc tly</w>
direc t</w>
det ected</w>
co sts</w>
bu m</w>
at ly</w>
ar r
ag r
So cial</w>
S au
P et
Ng ân</w>
K o
Joh n</w>
H er</w>
G al
Du ong</w>
Austral ian</w>
Afghan istan</w>
5 6</w>
- -</w>
ố c.</w>
ỏ .</w>
ẹ n</w>
đ ỏ</w>
đ àm</w>
é o</w>
â u,</w>
who le</w>
victim s</w>
vic tim</w>
ves sel</w>
ul tural</w>
tr ại</w>
te en</w>
tain ment</w>
t ồi</w>
sto pped</w>
sp orts</w>
reven ues</w>
rem aining</w>
regi st
r ying</w>
phố .</w>
ph ẩ
parti cip
ox y
op port
on y</w>
nữ a,</w>
ni ềm</w>
ner ship</w>
neigh bor
nation wide</w>
mo stly</w>
mo squ
met ers</w>
m ặ
l ỗ</w>
l ưới</w>
k ept</w>
is es</w>
infec tious</w>
in side</w>
ig h</w>
i um</w>
hộ i.</w>
he at</w>
ha ng</w>
gi ant</w>
foot ball</w>
fish er
f av
es sion</w>
dig ital</w>
d àng</w>
cour t</w>
con ference</w>
ch ứ
cau ght</w>
ca using</w>
c old</w>
b ụ
b ạo</w>
b ạch</w>
att ack</w>
ad dre
Tran sport</w>
Th ree</w>
Starbu cks</w>
S r
Parac el</w>
Olymp ic</w>
N u
N a</w>
L y
H ọc</w>
H ai
F ol
E ven</w>
Ch il
C el
B ác</w>
4 8</w>
200 9</w>
1 /
ỏ ,</w>
Đ ông,</w>
Á ,</w>
x anh</w>
wor st</w>
v ết</w>
v ers</w>
tric ts</w>
tr ắng</w>
tr à</w>
thể ,</w>
th ầu</w>
th iệp</w>
supp lies</w>
sup por
stat us</w>
st ed</w>
sle ep</w>
s ov
reven ue</w>
re pa
prot ection</w>
pl ants</w>
p .m.</w>
ng ”</w>
ng :</w>
main ly</w>
lea der</w>
l ẽ</w>
ki m</w>
khá c
kh ói</w>
k ia</w>
j our
intro duc
ig n
hot els</w>
h our</w>
gi à</w>
fore st</w>
fac ing</w>
f as
every one</w>
eng ine
en tered</w>
en ni
em io
e nh
dro pped</w>
dang erous</w>
d ị</w>
cul arly</w>
cri min
conduc ted</w>
con nec
ch ục</w>
ca o,</w>
c enters</w>
break s</w>
be i</w>
al cohol</w>
adul ts</w>
a e</w>
Tr i</w>
Th ực</w>
Th áng</w>
Re public</w>
Pom pe
Pak ist
O S
Ngo c</w>
Mi nh,</w>
M in
L ễ</w>
L ào</w>
K ết</w>
K e
Indus try</w>
E ducation</w>
Ch ương</w>
C a</w>
C L
C .</w>
B ur
Afric an</w>
9 .</w>
8 %</w>
20 30</w>
1 %</w>
.' ]"</w>
ộ m</w>
ườ n</w>
ư ỡng</w>
Đ ảng</w>
ù ng.</w>
wro te</w>
wh ite</w>
wat ch</w>
vill age</w>
us ual</w>
tu ệ</w>
thre at</w>
tho át</w>
th ô
tech n
t t
sur vi
ser ved</w>
rev eal
recor d</w>
pre p
par k</w>
p y
p es</w>
ox ide</w>
over ing</w>
op ening</w>
o red</w>
ngoà i,</w>
ng ư</w>
n Ex
mov ed</w>
metho ds</w>
mater ials</w>
mar t</w>
mar i
l ỏng</w>
l ad
k en</w>
isol ated</w>
inj ur
in sec
in ,</w>
hà ng.</w>
hu ống</w>
ho t</w>
g ũi</w>
fru it</w>
fi gh
ffic i
f ans</w>
e x</w>
do ing</w>
cú m</w>
cu ̀ng</w>
cro w
cre w</w>
cr yp
complet ed</w>
citiz en</w>
cer tific
carri ed</w>
bu ồn</w>
b ò</w>
au tom
an tly</w>
al ised</w>
agre ed</w>
a x
a c</w>
V nEx
V ar
Tech no
Sá u,</w>
Sec retary</w>
Ph an</w>
P as
No w</w>
Nh óm</w>
M el
M E
Hu ế</w>
Go o</w>
Gi ao</w>
E S
Da k</w>
C ao</w>
C ,</w>
Al though</w>
A mong</w>
A I
: 30</w>
6 2</w>
2019 .</w>
10 %</w>
ề n.</w>
ươ i</w>
ò i</w>
z ing</w>
x ấu</w>
w el
virus ,</w>
un d
u l</w>
tr op
ti v
through out</w>
thre at
t ự
t ỉ</w>
t able</w>
stor m</w>
spec ific</w>
s ắm</w>
s we
ro se</w>
requ ested</w>
regist ered</w>
ra ins</w>
prof essi
poli tical</w>
p el
on ic</w>
munic ip
min im
m ắ
m ing</w>
m ine</w>
lớ n.</w>
lo ạn</w>
lo ng
k ers</w>
is ter</w>
individu al</w>
in telligence</w>
identi fy</w>
h ồ
gro w</w>
govern ments</w>
expres sed</w>
es .</w>
enti re</w>
em o
diagno sed</w>
di o</w>
der ly</w>
de b
commit tee</w>
clas ses</w>
cha el</w>
cen tur
car ry</w>
buil d</w>
bo y</w>
b ề</w>
b ây</w>
arri val</w>
appro pri
ann ual</w>
an e</w>
allow ing</w>
all s</w>
al bum</w>
a ch
Wom en</w>
T òa</w>
S we
R ec
Qu oc</w>
Phá p,</w>
P ho
P an
P a
P T</w>
Nh iệt</w>
N av
Mis s</w>
Lu ật</w>
La z
Is land</w>
Gi á</w>
Em b
Christ mas</w>
Budd ha</w>
Bang k
B el
Ali bab
Ad ministration</w>
201 7,</w>
2 2
ở .</w>
ở ,</w>
y ền</w>
vi l</w>
us er</w>
ur ged</w>
un ar</w>
tre es</w>
str u
spe ed</w>
sov ere
si us</w>
s ạch</w>
s ent
reg ar
qu ê</w>
ph ỏng</w>
passe nger</w>
parti cularly</w>
oun ds</w>
ort ation</w>
occu r</w>
nhiễ m,</w>
ngh èo</w>
monit or</w>
mo d
manufac turing</w>
m át</w>
let ter</w>
l ũ</w>
l ess
kh ông
k ính</w>
k er</w>
il legally</w>
ho o
hist or
h âm</w>
gir ls</w>
gi ving</w>
g a</w>
f resh</w>
exten ded</w>
ex ecu
es ter
es ides</w>
environ mental</w>
el derly</w>
ec e</w>
ear ing</w>
devi ces</w>
cul tural</w>
comm un
co ng
car s</w>
can di
bene f
any one</w>
acu te</w>
V ụ</w>
Tru yền</w>
Th ống</w>
TP. HCM</w>
Sau di</w>
S ur
S to
S inh</w>
Qu y</w>
O ver</w>
N o</w>
Mexic o</w>
Mar i
Le e</w>
In st
Hu bei</w>
F ed
D r.</w>
Col a</w>
Cha u</w>
C an</w>
B a,</w>
9 2</w>
8 3</w>
6 1</w>
5 9</w>
5 0%</w>
1 st</w>
’ ve</w>
ậ t.</w>
week end</w>
vậ y.</w>
vol ume</w>
ventilat ors</w>
uni versities</w>
tre e</w>
transp ortation</w>
ti s</w>
ti ngs</w>
ti ci
ther ap
th uyền</w>
t á
t ation</w>
sum mer</w>
sp ace</w>
si m
sho ps</w>
sa u.</w>
s or
s il
ro oms</w>
rec overy</w>
r ac
play ed</w>
ph ò
parti cular</w>
organiz ation</w>
nhậ t,</w>
nh ắn</w>
ng ộ</w>
ng ưng</w>
n ắm</w>
n :</w>
meas ure</w>
m ừng</w>
l ửa</w>
iz ation</w>
in struc
in ing</w>
hy dro
h ec
gr ic
g ỡ</w>
g ames</w>
fisher men</w>
farm ers</w>
ex isting</w>
ev ening</w>
et h</w>
es cap
eff ort</w>
e ch</w>
dist ance</w>
diplom atic</w>
co ast</w>
ch ảy</w>
ch ron
celeb r
ce e
c ướ
bacter ia</w>
b ol
ar ian</w>
an it
air line</w>
adver ti
ad ministration</w>
a -
WH O
V F
T am</w>
S ong</w>
S an</w>
S aint</w>
Pre vi
P ham</w>
Mi chael</w>
M ọi</w>
M at
L am</w>
L ab
Joh n
J i
F ood</w>
F loy
Ear th</w>
D ay</w>
Col om
Cel sius</w>
Campu chia</w>
C )</w>
B ill</w>
Azerbaij an</w>
As s
A ra
A gric
A D
9 %</w>
7 4</w>
6 8</w>
5 8</w>
5 0,000</w>
5 .000</w>
" Ông</w>
ấ n,</w>
đ èn</w>
y ed</w>
x im
who m</w>
w ai
un its</w>
tạ i,</w>
tric ity</w>
toà n.</w>
thá ng.</w>
te ams</w>
t ây</w>
t àng</w>
super market</w>
stru gg
st ates</w>
sp ir
sing le</w>
shu t</w>
s on
s end</w>
rou tes</w>
re pe
r s</w>
pri or</w>
po re
ph ú</w>
ph u
ph arm
nghiệ m.</w>
mu ỗi</w>
mas k</w>
m ag
loc als</w>
lis h
ke ep
k ets</w>
k a</w>
iz ing</w>
inte rest</w>
in ated</w>
high ly</w>
h ứa</w>
h on
g lo
g ent</w>
fif th</w>
fail ed</w>
f ake</w>
e ating</w>
dro me</w>
dis tricts</w>
di oxide</w>
des cri
dep end
cầ u.</w>
cro s
competi tion</w>
comp lic
cl es</w>
chem ical</w>
chec k</w>
ch ạm</w>
ch ào</w>
cas ting</w>
c ầm</w>
bo m</w>
bi t</w>
b ớt</w>
b ật</w>
b al
ar ies</w>
and a</w>
agric ultural</w>
acc used</w>
W in
Venezu ela</w>
Var ad
V ân</w>
Ukra ine</w>
UN CL
U A
T àu</w>
Singa pore
Pompe o</w>
On line</w>
Niger ia</w>
N ước</w>
N ha
Malay si
Kh anh</w>
J us
H ôm</w>
GD P</w>
Del ta</w>
C i
Bo th</w>
B y
B or
A nh
A T
4 %</w>
200 3</w>
00 .000</w>
ớ i
đị nh,</w>
đ ê
việ c.</w>
vir tual</w>
vi sion</w>
v ul
vul ner
u tions</w>
tw are</w>
tr ường,</w>
tr act</w>
th ố
th ảm</w>
tel evision</w>
t ễ</w>
success ful</w>
smar t</w>
si ck</w>
sa d
recomm ended</w>
re ly</w>
r ắn</w>
r ace</w>
pub lic
pro g
prep are</w>
postp oned</w>
play ers</w>
pl anning</w>
off ering</w>
ng ập</w>
mid -
mat ch</w>
lea ving</w>
l ẫn</w>
l ô</w>
k ar</w>
ill ness</w>
hợ p.</w>
hol ds</w>
h è</w>
h uynh</w>
h iệp</w>
gi ene</w>
gi c</w>
fu el</w>
for ced</w>
f la
experi enced</w>
ev acu
en sion</w>
eas ily</w>
dri ving</w>
dec lar
d ịp</w>
d ar
cont ain</w>
con clu
complet ely</w>
comm unic
co al</w>
clas s</w>
ch ắn</w>
ch ậm</w>
ch ìm</w>
c over</w>
bus es</w>
bo dies</w>
b ing</w>
att le</w>
as k</w>
an ia</w>
an ding</w>
al though</w>
ab ly</w>
V ic
T re
S ức</w>
P al
Ob last</w>
F ran
Den mark</w>
Ch ar
CAA V</w>
C ap
B al
Agric ulture</w>
9 9</w>
5 1</w>
4 ,000</w>
201 6,</w>
2 50</w>
10 ,000</w>
ấ t.</w>
đ ọc</w>
đ ạ
Đ ường</w>
ă n,</w>
x o
ver sion</w>
tri p</w>
tr í
ti ên.</w>
t ộc</w>
t ex
só t</w>
st able</w>
sp reading</w>
sof tware</w>
sho wn</w>
se p
s ả
s li
s k</w>
re gu
regu lar</w>
post ed</w>
pos al</w>
phố ,</w>
p us
occu p
nhiễ m.</w>
ng )</w>
main tain</w>
mach ine</w>
m ê</w>
m ou
m al
loc ations</w>
li ều</w>
li z
li nh</w>
l ượ
l áng</w>
l ành</w>
l àn</w>
k y</w>
k land</w>
inf or
in .</w>
il a</w>
họ a</w>
hi ến</w>
hel ped</w>
h ề</w>
g ắn</w>
g .</w>
for ces</w>
fo cus</w>
f oc
expor ted</w>
ev al
em .</w>
ell a</w>
do z
dis pu
destin ations</w>
dec ades</w>
d ding</w>
contr ol
consum ers</w>
con om
commer cial</w>
clo sely</w>
ch e</w>
cal ls</w>
bri dge</w>
be er</w>
b è</w>
avi ation</w>
ati stics</w>
ar m</w>
ar ia</w>
am ing</w>
aff ect</w>
accoun ts</w>
W illi
Un der</w>
Tur k
To wn</w>
Th ời</w>
T ed
Sci enti
S ul
S everal</w>
Ri ver</w>
R S</w>
R O
NH S</w>
N o.</w>
M c
K a
I re
H igh</w>
F A</w>
Ex per
E conom
E C</w>
C ách</w>
C lin
Bangk ok</w>
A Q
7 7</w>
4 0
20 2
ộ .</w>
đượ c.</w>
đ ổ
đ ẳng</w>
x ứ</w>
tw ice</w>
travel led</w>
travel ed</w>
tran si
tr ông</w>
tic ally</w>
ti a</w>
thá ng,</w>
ta res</w>
sovere ign
sovereign ty</w>
si nh,</w>
s ăn</w>
ru m
rel ev
ra ise</w>
r ăng</w>
prote in</w>
pregn ant</w>
pre pa
po st</w>
po ses</w>
pilo ts</w>
pho to
par ty</w>
or din
on ing</w>
off ers</w>
nghiệ p,</w>
n a</w>
manufac ture
m ười</w>
m :</w>
lú a</w>
lu s</w>
li ền</w>
laun ch</w>
l ừa</w>
l ụ
l i</w>
kh ơi</w>
kh o</w>
is land</w>
in come</w>
hu ge</w>
ho pe</w>
hec tares</w>
happ ened</w>
giờ ,</w>
gi ản</w>
g y
fin dings</w>
fam ous</w>
f er</w>
et ed</w>
er ation</w>
depres sion</w>
dep loy
d ường</w>
clo sure</w>
ch ains</w>
c ẩn</w>
c ảng</w>
c ản</w>
c li
bu d
bre ath</w>
b il
b a,</w>
ac tually</w>
W est</w>
Varad kar</w>
V u
Tu an</w>
Ti en</w>
Th ủy</w>
S ân</w>
S al
Previ ously</w>
Ph ụ</w>
P a</w>
Offic e</w>
Nẵ ng.</w>
Nă m,</w>
Mil an</w>
Mas an</w>
L âm</w>
K ing
I ts</w>
I ra
G ần</w>
G M
Fr anc
En viron
D ù</w>
Com mer
Cen tre</w>
C our
Bả y,</w>
B ến</w>
B io
Alibab a</w>
A t
A P
6 7</w>
3 0%</w>
201 0</w>
2 %</w>
10 ,</w>
ư .</w>
ĩ ,</w>
đ ợi</w>
đ á
Đ ào</w>
ă ng,</w>
ú c,</w>
wea p
wa it</w>
w in</w>
w est</w>
w ants</w>
v ị
us e
under standing</w>
tu y</w>
tific ial</w>
thê m.</w>
th ùng</w>
th ôn</w>
su st
str a
stay ing</w>
st orm
st ep</w>
squ are</w>
some times</w>
show ing</w>
sho pping</w>
s er</w>
ro l
requ ire</w>
repa tri
relev ant</w>
relation ship</w>
re view</w>
re su
re mon
re fore</w>
r ẻ</w>
ques tions</w>
pre dic
per mission</w>
p ate</w>
n .',</w>
mạ ng.</w>
mp tion</w>
metho d</w>
mas s</w>
m enti
lo ts</w>
lab or</w>
l ắp</w>
l ậ
l ying</w>
kho án</w>
kar ao
k ênh</w>
k its</w>
k .</w>
initi al</w>
in t
illi on
id ney</w>
i red</w>
h ur
h ,</w>
gi ề
gi am</w>
fru its</w>
figh ting</w>
f f</w>
f elt</w>
employ ee</w>
em y</w>
elec tricity</w>
el ing</w>
el ines</w>
e um</w>
do gs</w>
devi ce</w>
d y
consi der</w>
con n
charg e</w>
ch ứ</w>
ch ance</w>
car rying</w>
bi nh</w>
b ank</w>
b ack
associ ated</w>
as es</w>
approv al</w>
an while</w>
ag on</w>
Y en</w>
W ar
VnEx press</w>
V acc
Tur key</w>
Tr ẻ</w>
T ỉnh</w>
Sá u.</w>
Sh illa</w>
Sci ence</w>
S um
Resear chers</w>
PC R</w>
Me anwhile</w>
Mar t</w>
Loc al</w>
Laz ada</w>
K ế</w>
In dex</w>
I I</w>
Hã y</w>
Hu ong</w>
H y</w>
Gi áng</w>
G ol
G ar
F estival</w>
D ương,</w>
D ru
C la
Author ities</w>
9 8</w>
7 %</w>
6 %</w>
ự ng</w>
ộ p</w>
ẹ t</w>
ạ ch,</w>
̣ ng</w>
đ ịch</w>
đ ỉnh</w>
đ ài</w>
đ i
Đ ộ,</w>
Đ ình</w>
à nh,</w>
y a</w>
wor ds</w>
war ning</w>
w id
việ c,</w>
vie ws</w>
vide os</w>
ur ban</w>
up on</w>
trị .</w>
tri ed</w>
tr ứng</w>
tr ẻ
tin a</w>
ti n,</w>
thể .</w>
th í
te dly</w>
t â
susp ension</w>
stre ets</w>
star tu
si ze</w>
si nh.</w>
sen ior</w>
s u</w>
ru les</w>
reveal ed</w>
produc ers</w>
pharm ac
ph ase</w>
pe ace</w>
p un
out lets</w>
out breaks</w>
o ted</w>
o graph
no tice</w>
nh ắm</w>
ngườ i
nghiệ p.</w>
ng ặt</w>
ng ược</w>
ng ""</w>
mo sph
mat ter</w>
m illions</w>
lớ n,</w>
l iệ
khỏ e.</w>
k idney</w>
invol ving</w>
impor ts</w>
imm un
hu ấn</w>
health y</w>
go al</w>
g ate</w>
fi res</w>
fall ing</w>
f ic</w>
f estival</w>
f al
er ,</w>
en ,</w>
em ,</w>
e ing</w>
e duc
e dom</w>
dre am</w>
deter min
det ail
cru ise</w>
cour se</w>
con sequ
con centr
ck ro
charg es</w>
ch ấm</w>
ch ó
cas h</w>
bro ke</w>
bor ders</w>
beg in</w>
b our
b ook</w>
b illion
appropri ate</w>
app ear</w>
ap ar
anim al</w>
al a</w>
agre ement</w>
ac id</w>
W ard</w>
VN Đ</w>
V ill
Tr e</w>
To àn</w>
SARS-CoV- 2</w>
S ab
Nă m.</w>
Nh ất</w>
Nh ư</w>
M S</w>
La os</w>
K ha
Ire land</w>
Inst agr
H ành</w>
H ai.</w>
Fol lowing</w>
Eng land</w>
D ao</w>
Can ad
Bru ne
Bi g</w>
B esides</w>
B ai</w>
6 3</w>
3 %</w>
( $
ắ c.</w>
ầ y</w>
ư ỡ
đ ảng</w>
đ em</w>
í n</w>
y ế
wor d</w>
w earing</w>
v ời</w>
v ang</w>
ur al</w>
uni versity</w>
tù y</w>
tur ned</w>
tra ffic
tr ộm</w>
tr úc</w>
th ường,</w>
tech ni
tea cher</w>
t ật</w>
t ell</w>
str o
shar ing</w>
sear ch</w>
scre ening</w>
s i</w>
ret ail</w>
r ạp</w>
r ange</w>
qu à</w>
provi ding</w>
ph ường</w>
ph a</w>
per formed</w>
pay ment</w>
origin al</w>
organ ic</w>
om bar
offic ers</w>
o logy</w>
nh ãn</w>
ng ."</w>
n àng</w>
n es</w>
n a
n ;</w>
mov ing</w>
mov ement</w>
mo tor
miệ ng</w>
met er</w>
medic ine</w>
marri age</w>
m om
m i</w>
m el
m and
logi es</w>
lob ally</w>
land ed</w>
k o</w>
k ins</w>
j ud
j ected</w>
is lands</w>
ing ly</w>
improv ed</w>
imp acts</w>
ill enni
hou ses</w>
hol ding</w>
ho u</w>
hea d
h ứng</w>
h es</w>
gi ường</w>
gi ves</w>
gh ép</w>
gen der</w>
g as</w>
fle w</w>
fiel ds</w>
f inis
exper t</w>
exper im
ex am</w>
even tually</w>
enter tainment</w>
ea k</w>
dis tribu
d ọc</w>
d ong</w>
cướ p</w>
cooper ation</w>
contrac ted</w>
contr ols</w>
continu ed</w>
col lege</w>
cla im</w>
chi m</w>
ch oo
ch at
centur y</w>
ce remon
c ó
c in
c ally</w>
br ands</w>
behavi or</w>
bas sad
b ad</w>
att emp
as p
ar ing</w>
app ed</w>
and ed</w>
am ond</w>
air lines</w>
aim ed</w>
ag u
ab use</w>
a we
X ã</w>
W ar</w>
V O
Techno logy</w>
T inh</w>
T ex
T el
Sr i</w>
Qu ân</w>
Qu an</w>
O x
Ng ay</w>
Net fli
Ne w
Med ic
M r</w>
M aur
Lo s</w>
Lea gue</w>
L ombar
L ank
K az
K ar
In dian</w>
Hu awe
E bol
Di amond</w>
De f
Cour t</w>
Chil dren</w>
C ổ</w>
C ur
C ai</w>
Bus iness</w>
Brit ney</w>
B et
8 6</w>
7 2</w>
5 -
200 8</w>
1 -
0 .</w>
. ”
ỏ i</w>
ả o,</w>
ả i.</w>
đ òi</w>
ú ,</w>
ê ,</w>
è m</w>
Ý .</w>
y u
x ăng</w>
wi ft</w>
vulner able</w>
vis as</w>
vacc ination</w>
un it</w>
tô i,</w>
tu ần,</w>
tr ưng</w>
to ols</w>
tempor ary</w>
tea chers</w>
tas te</w>
tal ity</w>
t un
t our
syn drome</w>
sk ills</w>
s ự
ru s</w>
resp ectively</w>
requ est</w>
rec y
re si
ra ising</w>
pu l
pre ven
por ation</w>
poli cies</w>
plat form</w>
person nel</w>
ol der</w>
oc e
nó ,</w>
no tes</w>
nh ạy</w>
ng ũ</w>
neighbor ing</w>
ne go
nego ti
n ”</w>
n ative</w>
min d</w>
me at</w>
main t
m ation</w>
lo ad
li ver</w>
l ân</w>
l er</w>
kh án</w>
j ail</w>
ir i</w>
i ously</w>
i ans</w>
hợ p,</w>
hospit alised</w>
hel ping</w>
h ồng</w>
h ối</w>
h ẹn</w>
h ậ
giề ng</w>
ga ve</w>
g ì
for ward</w>
fe atures</w>
fact ory</w>
fac ed</w>
exerc ise</w>
every thing</w>
en berg</w>
ed ly</w>
e u</w>
e f
dụ ng,</w>
docu ments</w>
difficul ties</w>
deter mine</w>
de ep</w>
curren cy</w>
conf id
coll ected</w>
co as
cle an
chang ing</w>
c ãi</w>
bas is</w>
b on
av es</w>
ar ms</w>
am a
a ches</w>
UA E</w>
Th êm</w>
Th o</w>
T ay</w>
O ce
N .</w>
M ạch</w>
L unar</w>
Iran ,</w>
HI V
Gi ang,</w>
G ra
G am
Exper ts</w>
Dan i
D al
Cu ba</w>
Cha mp
Campu chi
C ần</w>
B lu
B itcoin</w>
B as
B ar</w>
B ang</w>
AF P</w>
A S
7 6</w>
7 1</w>
5 G</w>
ắ ng,</w>
đầ u.</w>
Â u,</w>
vol un
viol ence</w>
vi -
v ụ
tuy ến.</w>
tu ng</w>
trọ ng,</w>
thu s</w>
ther ia</w>
tax i</w>
susp end</w>
sus hi</w>
suff ering</w>
sub sequ
sol utions</w>
sib ility</w>
see king</w>
see k</w>
sci ence</w>
sa u
sa d</w>
s ổ</w>
ro w</w>
repor tedly</w>
re l</w>
qu ỹ</w>
pro posal</w>
pro mp
ph theria</w>
per c
part ners</w>
o es</w>
nữ a
nh ảy</w>
ngh iện</w>
ng ọt</w>
n esses</w>
mạ nh.</w>
movi e</w>
mou th</w>
mor tality</w>
monit ored</w>
mil es</w>
m ãn</w>
lệ ch</w>
lã i</w>
lin k</w>
l ọt</w>
k iểu</w>
j i</w>
ist ant</w>
ir ing</w>
in ks</w>
in dex</w>
in cial</w>
ha z
h ô
h ài</w>
gr ade</w>
gi ảng</w>
g ã</w>
fl u</w>
f oods</w>
execu tive</w>
estab lish
esp ite</w>
es ter</w>
ec o
dr y</w>
den ied</w>
d est</w>
d .</w>
contin ues</w>
con sul
com ment</w>
chi pel
camer a</w>
cal ling</w>
c ate
bạ n.</w>
be low</w>
b ậ
b it
b i</w>
b ay.</w>
author ity</w>
au di
applic ation</w>
all er</w>
advant age</w>
ad d</w>
ac ked</w>
W o
Vic tor
VN 00
Tu ấn</w>
To day</w>
Ten ma</w>
R T
Nor thern</w>
Ngh ệ</w>
N A</w>
M ôi</w>
M id
M a</w>
John son</w>
Instagr am</w>
Huawe i</w>
G B
Floy d</w>
Faceb oo
Do anh</w>
Di rec
D espite</w>
Ch ợ</w>
CN N</w>
C enters</w>
By te
B ắc,</w>
B ec
6 9</w>
20 30
10 .
1 2.
ệ .</w>
ế .</w>
ấ y.</w>
ạ n,</w>
đ iệp</w>
á t,</w>
y an</w>
wor ri
we ight</w>
vi ễn</w>
vi ên,</w>
vi nh</w>
v ực.</w>
tre ating</w>
to wards</w>
tion ally</w>
ti l
th qu
th anks</w>
th ang</w>
tal k</w>
t a,</w>
sur g
succ ess</w>
su it</w>
st an</w>
signific antly</w>
short age</w>
serv ation</w>
sec re
res ort</w>
remov ed</w>
rel ations</w>
reduc ing</w>
re p
re ment</w>
ran ked</w>
ra ther</w>
prov incial</w>
ph ổ
pand ed</w>
p aper</w>
organ is
oper ate</w>
on str
occur red</w>
nur sing</w>
ng ly</w>
ng .',</w>
n ."</w>
municip al</w>
minu te</w>
menti oned</w>
mat ches</w>
marri ed</w>
mar ked</w>
loc ked</w>
lin ed</w>
le dge</w>
larg er</w>
la ,</w>
l ối</w>
l ạ</w>
l í
kil o
kh ông,</w>
kh ô</w>
kh ung</w>
k ịp</w>
k u
j um
it able</w>
indus trial</w>
il ed</w>
i on
ha i,</w>
guid elines</w>
grad u
fac es</w>
exc ept</w>
ex panded</w>
ever age</w>
es h</w>
ell ers</w>
e th
dr ink</w>
do ors</w>
cộ ng.</w>
compu ter</w>
comp et
cle an</w>
ck y</w>
cate g
buy ing</w>
bi a,</w>
becom ing</w>
becom es</w>
beau ty</w>
b ỏ.</w>
b ếp</w>
ass istance</w>
app lied</w>
an ces</w>
advi ce</w>
acc ur
We C
WeC hat</w>
USD ,</w>
Thu ận</w>
Thi en</w>
Tha ng</w>
Th ượng</w>
Sam ad
S wit
S ha
S en
Res p
R u
Qu ản</w>
Pu tin</w>
Philipp in
On ce</w>
O s
O P
Ni nh,</w>
Nh i</w>
Ng ô</w>
Nav y</w>
N ic
N ai</w>
M ay
La w</w>
King dom</w>
Kh í</w>
Is lam
I an</w>
H ond
F our</w>
Co ng
Cha ir
C ử
Bả n.</w>
B ắt</w>
B en</w>
AQ I</w>
: 00</w>
2 .000</w>
" Vào</w>
ạ i.</w>
ơ n,</w>
đ ệ</w>
đ âu</w>
đ i.</w>
đ i,</w>
Đ ộng</w>
y al</w>
x i
win ter</w>
weap ons</w>
vắc- x
visi ting</w>
veget ables</w>
v ườn</w>
ur ch</w>
tu red</w>
tr ess</w>
tour nam
ton nes</w>
thê m,</w>
th ả</w>
th ường.</w>
techn ical</w>
t úc</w>
t ning</w>
t a.</w>
stud ying</w>
stay ed</w>
st ands</w>
sol ution</w>
smo ke</w>
sen si
s ụt</w>
s ốc</w>
rem ained</w>
reli gious</w>
rap id</w>
r d</w>
proc essing</w>
pro hi
pre c
practi ce</w>
pow er
phủ .</w>
ph ia</w>
perform ance</w>
pay ments</w>
p eak</w>
p an
oxy gen</w>
orig in</w>
ni tr
n )</w>
mit h</w>
minis tries</w>
me an</w>
manag ed</w>
mak er</w>
mach ines</w>
ma p</w>
m ời</w>
m ặn</w>
m èo</w>
m icro
m es</w>
m ay
m ary</w>
lan ding</w>
kno w
ki ds</w>
ke ting</w>
it self</w>
immigr ation</w>
il ing</w>
hỏ a</w>
hó a,</w>
hel ps</w>
h ep
gre en</w>
gr ams</w>
g ree</w>
g er</w>
g al</w>
fri end
form ation</w>
extrem ely</w>
expl ained</w>
ex posed</w>
ex clu
et er
er ies</w>
er ate</w>
ent al</w>
eas ed</w>
du ̀ng</w>
dr agon</w>
des tro
de gree</w>
d ặ
d ư</w>
d iệt</w>
cử a.</w>
cô ,</w>
cust oms</w>
concer ned</w>
col labor
co -
chron ic</w>
ch ay</w>
carri ers</w>
c ụ
c ơ
c overed</w>
bud get</w>
b ình,</w>
attac ks</w>
at mosph
allow s</w>
al ,</w>
ag s</w>
adverti sing</w>
addre ss</w>
ad v
ad op
a head</w>
a h
Y a
UNCL OS</w>
Ti ền</w>
Ted dy</w>
T es
Sul li</w>
Sp r
S wift</w>
S ar
Pe ace</w>
Pakist ani</w>
P i
P ha
Netfli x</w>
N ữ</w>
N oi</w>
Mar ket</w>
Man ila</w>
M ặt</w>
L ệnh</w>
L ad
L GB
K yo</w>
K im
K en
J ong</w>
Inter net
For d</w>
FI FA</w>
E p
Cu ối</w>
Commer ce</w>
C ho
Byte D
Bang lad
8 4</w>
8 0,000</w>
5 0.000</w>
1. 5</w>
ệ ,</w>
ơ i,</w>
Đ ược</w>
Â u.</w>
y ên</w>
y le</w>
y ang</w>
wild life</w>
w ood</w>
w ed</w>
v an</w>
ur gent</w>
tô i
typ ically</w>
tu m
trị ,</w>
travel ing</w>
trac king</w>
tr ôi</w>
tic kets</w>
thro at</w>
th ù</w>
th ông,</w>
t ới,</w>
t ấm</w>
t ươi</w>
t ú
t ách</w>
t à
sy m
suff er</w>
su n</w>
stu died</w>
str i
stand ards</w>
stan ces</w>
st ep
st ations</w>
soci ety</w>
so ngs</w>
sk il
sim ple</w>
sec u
s ting</w>
s anc
s -
ri ch</w>
res ol
ren tly</w>
rem ents</w>
regi onal</w>
recogni tion</w>
r oun
quarantin ing</w>
popu l
phủ ,</w>
ph ạ
ph ú
p ain</w>
p ain
nu tri
ng ưỡng</w>
ne ar
near by</w>
n ộp</w>
n êu</w>
mean ing</w>
manag er</w>
maj ority</w>
m ắn</w>
lịch .</w>
lý .</w>
lã o</w>
logi sts</w>
lea ves</w>
l in</w>
kh úc</w>
k iệm</w>
jo in</w>
in e,</w>
in depend
implem ented</w>
họ c
hà nh,</w>
happ y</w>
gr anted</w>
gener ally</w>
gene tic</w>
g old</w>
g in</w>
fre edom</w>
for d</w>
fig ures</w>
f low</w>
ear thqu
di ễ
di v
di e</w>
deploy ed</w>
dem onstr
dec ide</w>
de fin
de al
d ạ</w>
d ày</w>
cứ u,</w>
cont ain
consequ ences</w>
ch am
c ấu</w>
c án</w>
c ann
bậ c</w>
bu l
bassad or</w>
b om
b lo
at tract</w>
app ly</w>
an o</w>
a id</w>
V ũng</w>
V ĩnh</w>
T ờ</w>
T ình</w>
T y
T ay
T C
Se oul</w>
S U
S C</w>
R T</w>
R I
Po st</w>
No t</w>
Ngh e</w>
M r.</w>
Lo ng,</w>
Jus tin</w>
J ord
Ho p
Ho i</w>
Geor gia</w>
Geor ge</w>
Emb assy</w>
Def ense</w>
D ũng</w>
D oc
D ell</w>
Chair man</w>
C ro
B ằng</w>
B r
An dre
A h
A P</w>
9 3</w>
7 9</w>
3 .000</w>
201 7.</w>
200 6</w>
20 %</w>
199 6</w>
15 .
0 -
"" Tôi</w>
ệ n,</w>
ề .</w>
ư ng,</w>
đấ t,</w>
đâ y
Đ o
Đ iển</w>
ì nh
y our
your self</w>
y er</w>
x y
wil d</w>
wal k</w>
wai ting</w>
v ững</w>
tử .</w>
tỉ nh,</w>
trọ ng.</w>
trop ical</w>
trad ing</w>
to m</w>
th y</w>
targ et</w>
t ụ
t ăng.</w>
t -
sur face</w>
sur ance</w>
sugg ests</w>
stric tly</w>
stre et</w>
st on</w>
spokes man</w>
sit u
si mp
ser ving</w>
ser iously</w>
se ized</w>
s sed</w>
s la
requi res</w>
re al
ras truc
ran king</w>
ra u
r ồ
purch ase</w>
prof essor</w>
produc ing</w>
prepa red</w>
pregn ancy</w>
pre -
por k</w>
plas ma</w>
phi ế
ph úc</w>
or ial</w>
opport unity</w>
o ffered</w>
nà o
no te</w>
ng ợi</w>
ng on</w>
net works</w>
n é
moder n</w>
m m</w>
m illenni
lu ngs</w>
low est</w>
loo ks</w>
logi st</w>
lo ved</w>
li ved</w>
l ay
khí .</w>
inst ance</w>
inf rastruc
in no
immedi ate</w>
i P
hã i</w>
ho á</w>
hea vi
happ en</w>
h ạnh</w>
gener ation</w>
fic i
fav or
fal se</w>
f ying</w>
f ed
enti ally</w>
ent ation</w>
el low</w>
el d</w>
dụ ng.</w>
dri ver</w>
dra w</w>
destin ation</w>
der ing</w>
dam aged</w>
d ân,</w>
d den</w>
cu lo
consu mption</w>
commer ce</w>
col lea
co ckro
clu ster</w>
ch ữ</w>
bur ning</w>
break ing</w>
bl ing</w>
b ought</w>
au th
ati tis</w>
ass ets</w>
arri vals</w>
and ,</w>
am in</w>
am ed</w>
alleg ed</w>
al ter
al one</w>
ac ter</w>
Y ên</w>
W at
V en
T ung</w>
Spr atly</w>
Scienti sts</w>
San ta</w>
Samad ova</w>
Qu ỹ</w>
Pha se</w>
Nh ung</w>
Net work</w>
N atural</w>
Mad ri
M ai,</w>
M V</w>
L ực</w>
L t
H e
Gu ine
G h
Ebol a</w>
E F</w>
Cor poration</w>
Comm unic
Chi ếc</w>
Ch ị</w>
C am</w>
Bi ên</w>
Bi en</w>
Be fore</w>
Ang el
9 0%</w>
200 5</w>
200 ,000</w>
20 00</w>
20 ,000</w>
10 .000</w>
1 2,
- r
’ m</w>
ề ,</w>
́ p</w>
ưỡ i</w>
đấ t.</w>
đu ổi</w>
điể m,</w>
đ en</w>
Đ ất</w>
é t.</w>
zer o</w>
zer land</w>
z hou</w>
x ế</w>
x óa</w>
wi de
wide ly</w>
w ind</w>
viol ations</w>
un known</w>
um s</w>
u ed</w>
transp or
tral ized</w>
tr ừng</w>
tr ục</w>
tox ic</w>
tiệ c</w>
tin e</w>
ther lands</w>
th ượng</w>
th ước</w>
te en
t ần</w>
t ally</w>
sur roun
subsequ ently</w>
sub si
sub ject</w>
su e</w>
streng th</w>
str ong
str essed</w>
str ess</w>
step s</w>
st om
spokes person</w>
sig n
si c</w>
sco red</w>
sal e</w>
sa ge</w>
s ử
run ning</w>
ru le</w>
rou te</w>
restaur ant</w>
ren ces</w>
re di
r ừ
r ãi</w>
r ào</w>
r on</w>
quả .</w>
quy ên</w>
pub li
provi des</w>
pro tests</w>
prepar ing</w>
pre cau
pre ad</w>
power ful</w>
nà o,</w>
ni ngs</w>
nh ánh</w>
nghiệ m,</w>
motor bi
mil k</w>
messa ge</w>
me als</w>
m ũi</w>
m ì</w>
lo se</w>
ligh tning</w>
li e</w>
l ấp</w>
l es
k illing</w>
isol ate</w>
im age</w>
hà nh.</w>
ho an</w>
hear d</w>
h àm</w>
h arm
glo ves</w>
gi on</w>
gi a
g or
g ation</w>
g ain</w>
fun ds</w>
fun d</w>
fin ding</w>
fig ure</w>
estim ates</w>
enti ve</w>
enjo y</w>
encour age</w>
en for
en cing</w>
emb assy</w>
elec tion</w>
e oro
e en</w>
e ding</w>
direc ted</w>
di tionally</w>
dec reas
dec ade</w>
d ọn</w>
d ậy</w>
custom er</w>
cul ture</w>
cu m
contr act</w>
cont am
cont aining</w>
compl ex</w>
com mon
clu b</w>
clo thing</w>
chat bo
ch ol
ch ai</w>
bo ats</w>
beau ti
b ay,</w>
au t
ati vely</w>
at ar</w>
as ter</w>
as ser
apar tment</w>
air e</w>
ai m</w>
ac e
ac ad
a p</w>
Wi th
Victor ia</w>
V al
Uni on</w>
U l
U N</w>
Tr in
Tha o</w>
T or
T au</w>
T H
Swit zerland</w>
S ,</w>
RO N
Pro ject</w>
Pet er</w>
P au
Ng a,</w>
Ne therlands</w>
M ỗi</w>
M O</w>
L ạ
In iti
I P
Har v
H ùng</w>
Guine a</w>
F ound
F oo
Environ ment</w>
Em ir
E m</w>
E g
Cử u</w>
Com mission</w>
C ầu</w>
C B
Brune i</w>
Ac ad
A uc
A .</w>
9 4</w>
8 9</w>
2 8
2 10</w>
15 ,000</w>
10 0,000</w>
1, 0
( WHO
" Một</w>
ủ .</w>
đượ c
đ ựng</w>
Đ ă
you nger</w>
x ương</w>
work er</w>
wea k
w are</w>
vis its</w>
vi ên.</w>
v oi</w>
un ist</w>
tố t.</w>
triể n.</w>
tre pre
trepre ne
trans actions</w>
tr ần</w>
tr ou
tr ains</w>
tr ain</w>
tr ack</w>
toà n,</w>
tournam ent</w>
tic le</w>
thi ết.</w>
therap y</w>
th ô</w>
territ ory</w>
ten d</w>
techno logies</w>
tea ching</w>
t úi</w>
surg ery</w>
success fully</w>
sub st
sub jects</w>
sp ending</w>
sk y</w>
sk i</w>
simp ly</w>
sha re
share hol
sh el
separ ate</w>
s à
s low
s core</w>
s bur
resul ted</w>
regar ding</w>
rec ru
rea ching</w>
re open</w>
ra il
pu tting</w>
proper ty</w>
pic ture</w>
ph en
over all</w>
ou l
oce an</w>
oc r
o t</w>
ng ón</w>
ng uy
ng .”</w>
n ới</w>
mu ộn</w>
messa ges</w>
m ảnh</w>
lis ted</w>
li a</w>
le ,</w>
l ặp</w>
l ần,</w>
l á
l om
l ars</w>
ki ngs</w>
khí ,</w>
k èm</w>
it ch
injur ies</w>
initi ally</w>
ind a</w>
import ance</w>
id a</w>
i nh
i er</w>
i ding</w>
hot spot</w>
gu il
gro wn</w>
govern mental</w>
gh t
g ets</w>
fun ding</w>
foun der</w>
fl ying</w>
ev es</w>
est ate</w>
enter pris
en ting</w>
emb ly</w>
em ail</w>
el se</w>
ec a</w>
e k</w>
dụ c,</w>
dou b
dom in
dol lars</w>
dis hes</w>
di phtheria</w>
di nh</w>
det ained</w>
decis ions</w>
d ứt</w>
d ính</w>
cộ ng,</w>
cô .</w>
culo sis</w>
crimin al</w>
corona ,</w>
coo king</w>
cont ent</w>
consum er</w>
consid ering</w>
con c
coas tal</w>
ci l</w>
challeng e</w>
ceremon y</w>
c ứng</w>
c ell</w>
bo at</w>
biệ t.</w>
ber culosis</w>
behavi ors</w>
b à
b at
b an
attrac ted</w>
ar tificial</w>
an ci
am e
al led</w>
al ert</w>
accoun ting</w>
ab in
a k</w>
Vill age</w>
V o
USD ).</w>
Tr í</w>
To yo
Thom p
St atistics</w>
Ser vice</w>
S áng</w>
R ập</w>
R ural</w>
R E
Qu ần</w>
Phi ,</w>
O hi
Medic ine</w>
Malaysi a,</w>
M ore
M e</w>
M au</w>
Lombar dy</w>
LGB T</w>
L oi</w>
In ves
H ệ</w>
H ome</w>
H ang
Ep id
E mer
D ata</w>
Comm unist</w>
Colom bia</w>
Ch âu,</w>
Canad a,</w>
Bet ween</w>
B ùi</w>
B ình,</w>
B ak
B ab
A )</w>
9 6</w>
8 1</w>
201 8.</w>
200 4</w>
10 ,
1 30</w>
ỳ nh</w>
ữ ,</w>
ố m</w>
ưở ng,</w>
đ ạp</w>
ò a,</w>
â y,</w>
win ds</w>
wid es
wides pread</w>
w estern</w>
val ues</w>
v ess
vess els</w>
treat ments</w>
trans mitted</w>
tr ig
to ward</w>
tiệ m</w>
thổ ,</w>
th ời,</w>
th ắt</w>
t led</w>
t .',</w>
số t,</w>
sẻ .</w>
susp ects</w>
sugg es
stra Z
straZ en
st ood</w>
st ability</w>
smart phone</w>
sent enced</w>
se o</w>
se ems</w>
se at</w>
scre en</w>
sco res</w>
scienti fic</w>
scen e</w>
sam ple</w>
s an</w>
rou p,</w>
requi rements</w>
recogni zed</w>
r are</w>
quy ển</w>
ques tion</w>
qu ốc.</w>
pro tes
pris on</w>
pre h
pr in
poin ted</w>
photo s</w>
ph í
p ig
ox y</w>
on a</w>
offic ially</w>
neighb ors</w>
mom ent</w>
mater ial</w>
mar keting</w>
mak ers</w>
m ẹ
m ái</w>
m àng</w>
m igr
m )</w>
li ance</w>
l ính</w>
karao ke</w>
k ể
it ems</w>
introduc ed</w>
insec ts</w>
infrastruc ture</w>
influ ence</w>
impl ement</w>
ic on</w>
i a.</w>
hy giene</w>
ho o</w>
h iện.</w>
gr and
gi cal</w>
gh ế</w>
g ,</w>
frequ ency</w>
f ts</w>
f ines</w>
es el</w>
en .</w>
el ,</w>
ei gh
ear ned</w>
dre ams</w>
doz ens</w>
dou ble</w>
docu ment</w>
dis mis
diffe rence</w>
diagno sis</w>
des ign</w>
deli very</w>
d ated</w>
cử a,</w>
cấ p,</w>
cryp to
coun ter
contrac ts</w>
common ly</w>
co ach</w>
choo se</w>
challeng es</w>
candi dates</w>
cam p</w>
c ắp</w>
c at
broad cast</w>
beauti ful</w>
b ền</w>
b ê</w>
b é
b ars</w>
atten ded</w>
atmosph ere</w>
ath on</w>
as king</w>
ar a</w>
anit arian</w>
anc es
agric ulture</w>
aff ecting</w>
ad ministr
ad ap
acqu ire</w>
a h</w>
Wh ite</w>
W estern</w>
W T
Vi rus</w>
Tru mp
The ir</w>
Th ừa</w>
Swe den</w>
Singapore ,</w>
S us
S hi
R ị
P T
Ngh ị</w>
Mel bour
M ur
M ol
M S
L im
Joh ns</w>
In v
Hop kins</w>
Ho àn</w>
HC V</w>
H ưng</w>
H óa</w>
Fl or
F u
F D
Di ễn</w>
Di en</w>
Dal at</w>
D ue</w>
D r</w>
D ang</w>
D an</w>
C ôn</w>
C u</w>
ByteD ance</w>
Bo eing</w>
B ay</w>
B ased</w>
Ass embly</w>
Ara bia</w>
Ar ound</w>
Ar gen
Ab out</w>
A straZen
A n,</w>
A S</w>
A R
9 1</w>
5 0
4 50</w>
4 .000</w>
3 rd</w>
3 70</w>
3 0,000</w>
1 1,
' ve</w>
' ll</w>
" Trong</w>
ứ ng.</w>
ứ c
ị ,</w>
ế ch</w>
ả o.</w>
ưở ng.</w>
đ iển</w>
Đ ặc</w>
ô -
Ú c,</w>
Á .</w>
z a</w>
we igh
wat er
was hing</w>
ven ess</w>
vehic le</w>
ve red</w>
v ương</w>
v ec
v ay</w>
ur o</w>
triể n,</w>
trav ellers</w>
trans fer</w>
traffic king</w>
tr àn</w>
tr ust</w>
tr ue</w>
tr a.</w>
ti s
thổ .</w>
t ốn</w>
t y
t :</w>
số .</w>
su ffici
st ers</w>
st em</w>
speci al
spe ech</w>
sp ring</w>
sm aller</w>
sensi tive</w>
see ing</w>
sec tion</w>
se y</w>
sa ve</w>
s ợi</w>
s òng</w>
s low</w>
s l
s ity</w>
s ea
repor ting</w>
repor ters</w>
recomm end
re ti
re r</w>
re move</w>
rail way</w>
r am
r al</w>
qu es</w>
prot ected</w>
promo te</w>
prohi b
professi on
pro per</w>
post -
pollu ted</w>
play ing</w>
plat forms</w>
pig s</w>
phụ c.</w>
phẩ m,</w>
ph ế</w>
part ner</w>
part ments</w>
par ties</w>
par ks</w>
pack age</w>
p esti
p age</w>
organiz ed</w>
oper ated</w>
op in
on to</w>
om in
occur s</w>
nur ses</w>
nhậ t.</w>
nh ện</w>
n ã
n ic</w>
mosqu it
mo di
mi ếng</w>
m ạo</w>
load ed</w>
ligh tly</w>
know ledge</w>
khỏ e,</w>
kho ẻ</w>
kh ỉ</w>
keep ing</w>
ju ana</w>
jo ined</w>
is on</w>
inj ured</w>
influ enz
ic es</w>
ic a</w>
i e</w>
hạ n,</w>
hum anitarian</w>
house holds</w>
hoo d</w>
go als</w>
gen e</w>
g ợi</w>
g ăng</w>
g ay</w>
fore sts</w>
flo or</w>
fin ally</w>
fact ories</w>
f ro
f ill</w>
ey es</w>
extrem e</w>
exp and</w>
ex tra</w>
ester day</w>
ere ly</w>
epid emio
employ ment</w>
electr ic</w>
el e
educ ational</w>
ed ge</w>
eas y</w>
dà i.</w>
dr inking</w>
do ws</w>
div or
dea dly</w>
de par
cụ m</w>
cá o.</w>
cá o,</w>
cri tici
cre ating</w>
cor por
com for
coll ect</w>
ci ting</w>
cen tralized</w>
celeb rate</w>
c ưới</w>
bro ken</w>
bri ght</w>
bl ack</w>
bir th
bi es</w>
benef its</w>
be at</w>
ashi on</w>
ar chipel
alle y</w>
al g
aim s</w>
ag os</w>
ag ement</w>
ac tress</w>
ac ting</w>
ac le</w>
ac cident</w>
ab and
a kh
V ùng</w>
V ung</w>
V ,</w>
USD .</w>
Th uy</w>
T uy
Sil ver</w>
Scot land</w>
R oo
R ay</w>
Pro f
Pl ay</w>
Ph ần</w>
P ep
Olymp ics</w>
O s</w>
O per
Nor way</w>
Ng ành</w>
Mil itary</w>
Mi ke</w>
Malay sian</w>
M ục</w>
L an.</w>
Ki en</w>
Inv estig
Indus trial</w>
I T</w>
H ạ</w>
H ương</w>
H án.</w>
F al
E P
Dru g</w>
Da vi
D em
Col lege</w>
Co ca</w>
Co .
C ũng</w>
C ri
C hay</w>
B ul
B l
Acad emy</w>
A wards</w>
A si
A i</w>
9 ,000</w>
201 5.</w>
19 6
1 20</w>
1 1.
. v
, ""</w>
( 5
ạ i,</w>
ơ i.</w>
ũ ng,</w>
ĩ .</w>
đượ c,</w>
Đă k</w>
â y.</w>
á i.</w>
y ond</w>
x ơ</w>
wor sen
wor se</w>
viol ating</w>
vi- rút</w>
venti ons</w>
v ực,</w>
v ỡ</w>
un usual</w>
un able</w>
u nh
tự .</w>
treprene ur
thi op
th ời.</w>
th es</w>
ten s</w>
te ens</w>
tain ous</w>
t ộ
t àn</w>
t y.</w>
t we
t ains</w>
số ng,</w>
sy l
syl van
surroun ding</w>
sugg est</w>
stric t</w>
storm s</w>
startu p</w>
st ake</w>
st adi
spo ke</w>
smart phones</w>
sho t</w>
sen se</w>
sec tors</w>
se em</w>
s ati
rằ ng:</w>
rum ors</w>
ru sh
ri ch
resp ond</w>
resi ding</w>
requ iring</w>
re action</w>
r ati
qu an,</w>
produc er</w>
prev entive</w>
pre ci
phò ng,</w>
phá t,</w>
ph im
pers ons</w>
per man
per form</w>
pa tho
p ag
nă m
norm ally</w>
no w
nhi ều.</w>
nam es</w>
n al
mosquit oes</w>
mon ium</w>
mod els</w>
mis sing</w>
mari juana</w>
manufacture rs</w>
m ệt</w>
lo ad</w>
lit er
li am
le gi
la i.</w>
la .</w>
l ou
k ỷ
k ẹt</w>
k ill</w>
is ,</w>
in sp
im ag
ic als</w>
ho pes</w>
har v
ha t
h ấ
h òn</w>
gu ard</w>
grad ually</w>
gi es</w>
gather ing</w>
gar ment</w>
g lobally</w>
g las
g in
g er
func tion</w>
frequ ently</w>
fici ency</w>
fed eral</w>
f ine</w>
f ears</w>
f ail</w>
experi encing</w>
ev ol
eu tical</w>
eth nic</w>
et es</w>
enn sylvan
em is
ealth y</w>
e .
du ̀</w>
du ty</w>
do ses</w>
dic tion</w>
detail s</w>
dep ending</w>
deli vered</w>
del ay
dec line</w>
d ỡ</w>
d ents</w>
cầ u
cu tting</w>
cu ts</w>
cor rec
comb at</w>
clo sing</w>
cl ou
chế t.</w>
chu ột</w>
chec k
ch ester</w>
care er</w>
cancel ed</w>
c ờ</w>
c anh</w>
bố .</w>
boo ks</w>
be ef</w>
b ông</w>
b ran
b lock</w>
b ad
b a.</w>
au l
atten d</w>
anti bio
ang ing</w>
an e
ad equ
achi ev
ac tor</w>
ac cor
a wa
Willi am</w>
Vin as
Vacc ine</w>
VO A</w>
V ận</w>
V inc
UN ES
U p
Turk ish</w>
Thu a</w>
Thomp son</w>
Th ể</w>
Th ảo</w>
Tex as</w>
T NH
Sy d
Sil icon</w>
S ơn,</w>
S im
Roo sev
Phá p.</w>
Phu oc</w>
P lus</w>
P ennsylvan
Oce an</w>
M ùa</w>
L ý</w>
L ang</w>
Ki ên</w>
J et
J SC</w>
Inves tment</w>
IO C</w>
Ho w</w>
H ằng</w>
For ce</w>
F er
F C</w>
Emer gency</w>
E ver
Direc tor</w>
D ược</w>
Comm unity</w>
C ụ</w>
C ái</w>
C O</w>
C E</w>
Bả y.</w>
B order</w>
AstraZen eca</w>
Ap p</w>
9 7</w>
6 ,000</w>
3. 5</w>
201 5,</w>
198 2</w>
19 5
1 1
000 -
/ 8,</w>
(WHO )</w>
( N
ủ ,</w>
ặ ng,</w>
ắc- xin</w>
ạ n.</w>
ạ ch.</w>
ươ n</w>
đ ừng</w>
ã nh</w>
à o,</w>
  này</w>
y esterday</w>
xy chloroquine</w>
xu ất,</w>
x i</w>
x ed</w>
w on
w aves</w>
vậ y
vu a</w>
ver se</w>
v ọ
v ap
uni que</w>
under lying</w>
trí ,</w>
tr ượt</w>
tr ang,</w>
tr ained</w>
to p
thu ốc,</w>
the o.</w>
th ẻ</w>
th ly</w>
th a
t ab
t ""</w>
susp ect</w>
survi ve</w>
super markets</w>
suffici ent</w>
su s</w>
struc k</w>
strong ly</w>
strate gy</w>
st a</w>
sk y
si t</w>
short ness</w>
shi ft</w>
sc and
sati s
s úng</w>
s ét</w>
s si
ru ral</w>
ru led</w>
ro ads</w>
ris en</w>
res cu
rem ember</w>
rel atives</w>
rea u</w>
re place</w>
re plac
ra inf
ra di
r ộ
r òng</w>
qu ét</w>
qu ite</w>
qu an.</w>
qu ali
pur poses</w>
prog ress</w>
pro to
pro bab
pri mary</w>
pres ence</w>
prec ed
plan es</w>
pi g</w>
phen om
phenom en
pas s</w>
p in</w>
origin ated</w>
or gan</w>
or g
oper ates</w>
oc cas
nu clear</w>
non- essential</w>
no ti
no se</w>
nitr ate</w>
nh iệ
ng ọn</w>
ne es</w>
n it
n es
n d</w>
n CoV</w>
n ""</w>
mari time</w>
m ầm</w>
m ur
m self</w>
lu ́c</w>
long ed</w>
land ,</w>
la b</w>
l ộn</w>
l ồng</w>
l ít</w>
l or
k o
k a
it ting</w>
it ation</w>
investig ate</w>
institu tions</w>
infor med</w>
increas ingly</w>
increas es</w>
in k
imp acted</w>
im bab
i ve</w>
hiể m.</w>
hi mself</w>
hep atitis</w>
harm ful</w>
hand ed</w>
ha m
gi ấu</w>
gi u
ga ther</w>
g ánh</w>
g ol
friend ly</w>
ff s</w>
fer ti
fall s</w>
f low
f esti
ex cee
ex ams</w>
er on</w>
equi val
ep tion</w>
en i
eli min
e at
di um</w>
descri bed</w>
de partments</w>
de -
cấ p.</w>
cả .</w>
conclu ded</w>
ch ôn</w>
certific ate</w>
cas ino</w>
c ốt</w>
c ũ</w>
c ông,</w>
c overing</w>
c em
bor ne</w>
bo x</w>
bo t
biệ t,</w>
biể n,</w>
b ến</w>
b lu
b attle</w>
b atch</w>
at edly</w>
ar ticle</w>
ar ch
ap art</w>
ac king</w>
a ward</w>
a dian</w>
Z imbab
Ya hoo</w>
V ề</w>
V ắc-xin</w>
V is
V .</w>
Tr ưởng</w>
TNH H</w>
St ation</w>
Sp ec
Sp ea
Sou thern</w>
Si x</w>
S ản</w>
S pe
S mith</w>
Res ources</w>
R is
Par t
P or
Nha ,</w>
Nguy ên,</w>
Mus k</w>
Mo sk
Melbour ne</w>
Maur iti
Man chester</w>
ME RS</w>
M r
Lu x
Li u</w>
Lank a</w>
L ister</w>
J our
Islam ic</w>
Iran .</w>
Indones ia,</w>
In formation</w>
IO T
Hy dro
Ho an</w>
H am
Gr and</w>
G ò
F ar
Epid emio
El ec
Econom ic</w>
E thiop
Da eg
D at</w>
Co .</w>
Ci vil</w>
Ch u</w>
Can adian</w>
C ru
C re
C o</w>
C I
Bo ston</w>
Bec ause</w>
Bar ley</w>
B ốn</w>
Angel es</w>
AF C</w>
A BC</w>
9 00</w>
6 0
200 7</w>
1. 0
1 2,</w>
1 1,</w>
Ứ ng</w>
ợ .</w>
ằ ng,</w>
ấ y,</w>
ấ y
đ ỏ,</w>
đ ắt</w>
đ ình,</w>
đ ãi</w>
đ âm</w>
đ ai</w>
Đ ảo</w>
Đ ã</w>
Đ iện</w>
Đ iể
ý ,</w>
ô ,</w>
z z
x óm</w>
x ách</w>
w illing</w>
vu ̣</w>
v ọt</w>
v it
us et
ud e</w>
u t</w>
tre o</w>
trav elling</w>
trac ing</w>
tr end</w>
tho ải</w>
th ức.</w>
th ơm</w>
th iều</w>
ter r
terr or
t ê</w>
t ay,</w>
t ari
sá t,</w>
subsi di
stan tly</w>
sol di
so li
sib ly</w>
sh or
sev erely</w>
sa ch
sach uset
s ĩ,</w>
s ánh</w>
s ound</w>
s an
rup tion</w>
ru ns</w>
repe atedly</w>
rel atively</w>
ref used</w>
rec over</w>
re sts</w>
re mo
re fl
re -
ra dio</w>
quar ters</w>
qu oted</w>
protes ters</w>
promis ed</w>
preven ting</w>
pp er</w>
pot entially</w>
pol y
po sing</w>
pl ying</w>
pl ays</w>
phá t.</w>
phá p,</w>
per f
part nership</w>
pa rent</w>
orm one</w>
or al</w>
offic es</w>
offic er</w>
nữ ,</w>
nó i."</w>
num erous</w>
ng ,”</w>
negoti ations</w>
n ạ</w>
n ature</w>
n .”</w>
moun tainous</w>
mil d</w>
mi th
mem ory</w>
mas sive</w>
mar ks</w>
m ưu</w>
m ây</w>
m ol
m ature</w>
lu cky</w>
li ghts</w>
less ons</w>
lea ds</w>
le o</w>
law ful</w>
la u</w>
l ần.</w>
l ũng</w>
kh ó
k y
k it</w>
ish ment</w>
ish ed</w>
inter ventions</w>
inten sive</w>
instruc tions</w>
in spec
in cid
im port</w>
i tion</w>
i .']</w>
hợ p
ho sted</w>
histor ical</w>
h ưu</w>
h ormone</w>
h iện,</w>
h iệ
giả .</w>
gi ọng</w>
g ar</w>
func tions</w>
finis hed</w>
fe et</w>
fe eling</w>
fall en</w>
f rau
eval u
establish ment</w>
escap e</w>
equival ent</w>
enn a</w>
enh ance</w>
en trepreneur
ell er</w>
eas tern</w>
e ffici
e ffic
du ̣ng</w>
du mp
divor ce</w>
discus s</w>
di ngly</w>
di ab
diab etes</w>
determin ed</w>
decreas e</w>
declar ation</w>
d ã
curren cies</w>
cri me</w>
con ver
con stantly</w>
commun ities</w>
comb ined</w>
com a</w>
clo thes</w>
cl ing</w>
cho ice</w>
chec ks</w>
ch ăn</w>
ch ick
car di
cam ps</w>
c ắn</w>
c ú</w>
c ông.</w>
c af
bố ,</w>
be yond</w>
b ù</w>
b y
b illions</w>
b anning</w>
aut onom
atten ding</w>
as ing</w>
as cular</w>
ar med</w>
ap preci
any thing</w>
and er</w>
an s
al ong
ain able</w>
ag ers</w>
administr ative</w>
ad ds</w>
accor dance</w>
ac ks</w>
a po
Wal es</w>
Vu ong</w>
Vinas un</w>
VA B
VAB IOT
VABIOT EC
V ị</w>
V õ</w>
V ice</w>
Tr ọng</w>
Tok yo
To gether</w>
Thi ên</w>
Th en</w>
Ten cent</w>
T ú</w>
T ùng</w>
Star ting</w>
Se y
R ed
R ail
R I</w>
Pro duc
Pas te
Offic ials</w>
OP EC</w>
Ni ñ
N oul</w>
Mas sachuset
Madri d</w>
Lad y</w>
L ou
L i</w>
L ater</w>
K yo
J in
In f
I II</w>
Hond a</w>
Hai yang</w>
HCM .</w>
H ear
G ates</w>
Found ation</w>
Fed eration</w>
F un
EC MO</w>
E very</w>
E r
Da ily</w>
D ữ</w>
D uy</w>
D am
Co ca
C ây</w>
C ong</w>
B ất</w>
B lack</w>
Author ity</w>
Auc kland</w>
Al ex
Air lin
A y
A ,</w>
8 ,000</w>
7 0%</w>
4 th</w>
3 -
201 4,</w>
20 25</w>
2, 5</w>
1. 3</w>
1. 2</w>
" Theo</w>
ổ ,</w>
ồ ng,</w>
ố ng,</w>
ố i,</w>
ẩ u</w>
ầ u,</w>
́ i</w>
ượ ng,</w>
ũ ,</w>
đ ình.</w>
Đ ức.</w>
ú c.</w>
á t.</w>
à n,</w>
z o
x ạ</w>
worri ed</w>
wh ere
vu ông</w>
vi ation</w>
use ful</w>
ur y</w>
up coming</w>
un preced
unpreced ented</w>
tử ,</w>
tỉ nh.</w>
tạ i.</w>
tuy ến,</w>
tu berculosis</w>
truc k</w>
trig g
travel ers</w>
transp a
tr ên,</w>
tr iệ
tr ash</w>
ton ,</w>
thấ p.</w>
the refore</w>
the red</w>
techni ques</w>
tal ks</w>
t ư,</w>
t ĩnh</w>
t ants</w>
t ant</w>
t ag
sá ng,</w>
symp tom</w>
sur gical</w>
suppor ting</w>
spea king</w>
sou ght</w>
sol ar</w>
skil led</w>
si x
shu t
sho ck</w>
scienti st</w>
sanc tions</w>
s ore</w>
s ession</w>
s cri
resul ting</w>
resu me</w>
resp ect</w>
recor ds</w>
recogni ze</w>
re placed</w>
ra in
public ly</w>
pu s</w>
prohib ited</w>
professi onal</w>
probab ly</w>
presid ential</w>
preh ensive</w>
pi on
ph é
perform ing</w>
pas sing</w>
particip ants</w>
pack ages</w>
p m</w>
ov ers</w>
op tions</w>
no thing</w>
nh ượng</w>
ng ""."</w>
new ly</w>
n ở</w>
n as
mắ t,</w>
motorbi ke</w>
mon thly</w>
mi nh,</w>
mel we
medi um</w>
man age</w>
m ực</w>
m ệnh</w>
m ùi</w>
lã ng</w>
loo ked</w>
lom erate</w>
lo sing</w>
li qu
li g
larg ely</w>
l ên,</w>
l y,</w>
l ap
kh iển</w>
k ịch
k new</w>
it age</w>
is ted</w>
ion ship</w>
inves ting</w>
inves ted</w>
inv est
invest ments</w>
inno v
influenz a</w>
indic ated</w>
im ages</w>
if y</w>
hon or</w>
ho ,</w>
heavi ly</w>
happ ens</w>
ha ck
h ụt</w>
h án</w>
guid ance</w>
gu es</w>
go es</w>
gi ble</w>
gg s</w>
g ri
g ates</w>
fi red</w>
fe ed</w>
farm ing</w>
f ashion</w>
f an
exp ec
exam ined</w>
ex change</w>
et er</w>
estab lish</w>
enterpris es</w>
en ty</w>
en ses</w>
en s
emb our
em melwe
ele ph
ear ning</w>
ea d
e- commerce</w>
e ggs</w>
dà i,</w>
dr am
disc overy</w>
det ect</w>
der gar
dec lined</w>
cu p</w>
contribu te</w>
cont acted</w>
confir mation</w>
con ven
commit ted</w>
comm une</w>
clas si
claim ing</w>
cir cum
chế t,</w>
chem icals</w>
ch ì</w>
ch áu</w>
c ậ
c ."</w>
bụ i</w>
bạ n,</w>
bo ar
biể n.</w>
billion ai
ber t</w>
be ds</w>
bas ic</w>
b ột</w>
b ộ,</w>
b éo</w>
b lock
b ird</w>
b everage</w>
b ase</w>
b ags</w>
at ell
associ ation</w>
ashi mi</w>
ash es</w>
ar i</w>
appe ar
anci ent</w>
an ish</w>
ai red</w>
adequ ate</w>
a ching</w>
Z hang</w>
W ang</w>
V ir
V i</w>
V eg
UNES CO</w>
Tra vel</w>
Tr ương</w>
Tr à</w>
Th ật</w>
T ỷ</w>
T our</w>
T et</w>
T er
T em
Sto ck</w>
Ste ve</w>
Sp anish</w>
SE A</w>
S w
S ome
S om
S ene
S emmelwe
S T
Re publi
R ia</w>
Pr ince</w>
Paste ur</w>
P ik
P M
O ld</w>
O ise</w>
Ng a.</w>
N ai
Mus eum</w>
Mi nh.</w>
Lux embour
Lu ong</w>
L it
Ki em</w>
J in</w>
J P
Hu ế,</w>
Ho tel</w>
H òa,</w>
H uyện</w>
H um
H aw
Gal lu
G a
F o
F il
Emir ates</w>
El on</w>
E v
Doc tors</w>
Daeg u</w>
D et
Cu ong</w>
Coca -
Champ ionship</w>
Ch ẳng</w>
C H
C C
Bab y</w>
B lo
B MS</w>
A viation</w>
A er
8 7</w>
7 0
201 2,</w>
20 22</w>
2 90</w>
19 5</w>
18 0</w>
16 .
15 ,
1. 8</w>
1, 500</w>
1 40</w>
( như</w>
( E
" Các</w>
’ d</w>
ừ a,</w>
ộ t,</w>
ộ c,</w>
ố ng.</w>
ề u,</w>
ắ n,</w>
Đ ỗ</w>
ý .</w>
ên -
à i,</w>
z ones</w>
z he
zhe im
y e
we red</w>
w o</w>
w ake</w>
vo ice</w>
ventilat or</w>
up dated</w>
u :</w>
tu de</w>
trans plant</w>
tr ùng,</w>
tr ia</w>
tin y</w>
tic ket</w>
ti le</w>
ti gh
threat ened</w>
th inking</w>
ten sions</w>
ten sion</w>
te eth</w>
t óc</w>
t ory</w>
t ack
t ."</w>
số ng.</w>
sả n,</w>
sw ine</w>
su res</w>
strate gic</w>
sti c</w>
st oms</w>
spea k</w>
sp or
sp ac
sn ake</w>
situ ations</w>
sev en
set ting</w>
serv ers</w>
ser ves</w>
sen ding</w>
se es</w>
schedu le</w>
s ắ
s ister</w>
s ets</w>
s cap
s al</w>
respon sibility</w>
read s</w>
re y</w>
re new
re cording</w>
rap id
rapid ly</w>
qu ốc,</w>
pur pose</w>
pub lis
prot est</w>
progr am
profession als</w>
proc esses</w>
posi tions</w>
por tion</w>
po is
phá p.</w>
pharmac eutical</w>
ph ơi</w>
ow ners</w>
opport un
on ics</w>
od ore</w>
nữ .</w>
né m</w>
nhi êu</w>
nh ạ
nh ."</w>
ng ;</w>
n ướng</w>
mặ t.</w>
mạ nh,</w>
musi cal</w>
moder ate</w>
mo on</w>
meas les</w>
me chan
me ant</w>
mand atory</w>
mag az
m its</w>
lý ,</w>
lã m</w>
loc ally</w>
lim ate</w>
leg es</w>
l ở</w>
l or</w>
l en</w>
kin ds</w>
kilo grams</w>
khá ch,</w>
kh át</w>
ka v</w>
k or
k la
itch en</w>
ist ent</w>
is o
invol ve</w>
inte gr
injur y</w>
inf ect</w>
independ ent</w>
in surance</w>
imp lic
immun o
ill er</w>
il ad
ilad el
ik a</w>
id ad</w>
hậ u.</w>
house hold</w>
her d</w>
hal t</w>
ha i.</w>
h ồn</w>
h ít</w>
h uy
gu n</w>
gu ests</w>
gu ards</w>
glas s</w>
giá o,</w>
gi ới
gam bling</w>
floo ding</w>
fe es</w>
fe eli
feeli ngs</w>
fe ature</w>
fas ter</w>
fam ili
fac tor</w>
exp ect</w>
ex ac
engine ering</w>
eng ine</w>
enfor cement</w>
en sur
effic acy</w>
ed y</w>
ec ture</w>
ec o</w>
eas ier</w>
e uro
duy ệ
du l
dis infec
di et</w>
di d
di a
dec or
d rought</w>
d ay
d ao</w>
cros s-
coun t</w>
cong lomerate</w>
confid ence</w>
comm ents</w>
collea gues</w>
co de</w>
clu bs</w>
cin em
ci vil</w>
chu ̉</w>
c ỏ</w>
c ậy</w>
c ược</w>
c ùng,</w>
c tion</w>
c ked</w>
c ai</w>
bá o,</w>
boo st</w>
bo y
bio logical</w>
billionai res</w>
bi dding</w>
bar rel</w>
b ồi</w>
b ỏng</w>
b ọn</w>
b ọ</w>
b anks</w>
atten d
at eral</w>
as sa
arti st</w>
ar d
appro ach</w>
appe ars</w>
ans wer</w>
ann er</w>
ang er</w>
am monium</w>
al o
ag ue</w>
ag g
achi eved</w>
ac cid
W oo
Vi de
V ệ</w>
V N</w>
U r
Tru ng,</w>
Trin idad</w>
To p</w>
Thom as</w>
Thi ên-
The odore</w>
Tay lor</w>
T ự</w>
T ĩ
T sai</w>
T hay</w>
T W</w>
Syd ney</w>
Ste ering</w>
Sh ang
Sch ul
S t.</w>
S ports</w>
S mith
Rob ert</w>
R ẫ
R w
R ice</w>
R ed</w>
Pro t
Philippin es,</w>
Ph ước</w>
Ph iladel
Pau l</w>
P lan</w>
On ly</w>
O thers</w>
Nh u
Nh an</w>
N ong</w>
N at
N S</w>
More over</w>
Mac au</w>
Lo t
Lo c</w>
L ương</w>
L à</w>
L eb
L au
L and
L ake</w>
Kh ách</w>
K ông,</w>
K ur
K ab
Jo e</w>
Jet star</w>
J ust</w>
J ae</w>
Ira q</w>
I V</w>
Harv ard</w>
H ình</w>
H a
Gre ece</w>
Flor ida</w>
Fl app
F light</w>
F ili
Ex p
E d
Dani el</w>
D ũng,</w>
D or
Cu stoms</w>
Con vention</w>
Col um
Coca- Cola</w>
Chi en</w>
Chi ef</w>
C y
C limate</w>
Bel gi
Ba h
B kav</w>
B en
B ao</w>
Al zheim
Air Po
Ah n</w>
9 /
5 th</w>
4 0%</w>
4 -
3 00,000</w>
25 %</w>
202 1.</w>
2019 -
201 6.</w>
200 2</w>
2. 3</w>
199 0</w>
10 0.000</w>
. ""
( P
' Một</w>
""" Chúng</w>
"" Chúng</w>
ữ .</w>
ụ ng</w>
ờ .</w>
ễ m</w>
ậ p,</w>
ấ n.</w>
̉ ng</w>
đ ến,</w>
đ ẹ
đ ắc</w>
đ iện,</w>
Đ ội</w>
Đ ị
Đ ạt</w>
Đ ông.</w>
Đ ôi</w>
ù m</w>
ì ,</w>
â m,</w>
z y</w>
x á</w>
x á
x e.</w>
writ ten</w>
wit ch</w>
week ly</w>
war m</w>
vậ t,</w>
volun te
ven ture</w>
ve gan</w>
vari ety</w>
v o</w>
under going</w>
un a</w>
u a</w>
tú y</w>
tu be</w>
tr ùng.</w>
tr ên.</w>
tr ào</w>
tr ic</w>
tr a,</w>
tox ic
tom atic</w>
to ps</w>
tiv ity</w>
tim ,</w>
ti ê
thu a</w>
thi êu</w>
th ở,</w>
th ói</w>
ter ns</w>
ter ,</w>
ten ing</w>
t ”</w>
t ắm</w>
t ấn,</w>
t y,</w>
t elec
t an</w>
sự .</w>
sym bo
sur ge</w>
sugges ting</w>
stom ach</w>
sti mu
spo ts</w>
sp id
sle y</w>
si der</w>
shar p
secu tive</w>
secre t</w>
sa fe
s ấu</w>
s way</w>
s lightly</w>
s ers</w>
s cor
s ar
ru ng</w>
robo ts</w>
ro r</w>
respon ding</w>
ren ess</w>
regul atory</w>
reduc tion</w>
re vol
re vi
re jected</w>
ra id</w>
r is</w>
quả ,</w>
qu ick</w>
qu est</w>
pu r</w>
prot ecting</w>
proper ly</w>
prof its</w>
priv acy</w>
prev ent
pre mi
pos sibly</w>
pl ed</w>
pi ece</w>
phổ i,</w>
phẩ m.</w>
phenomen on</w>
per for
p in
out put</w>
our ing</w>
ori th
ordin ary</w>
or m</w>
on ds</w>
ob ile</w>
o p</w>
nó i,</w>
nhi ên.</w>
ngh iệt</w>
ng ẫu</w>
ng ã</w>
ng ài</w>
ng -
n ợ</w>
n y</w>
mu ối</w>
mu ̣c</w>
mu la</w>
mat ters</w>
mal aria</w>
m ấy</w>
m ảng</w>
m ir</w>
m ir
m ice</w>
là ,</w>
lo a</w>
lif ted</w>
licen ses</w>
li kes</w>
le ng
l ầm</w>
l ò</w>
l ên.</w>
kin dergar
khá ch.</w>
khi ếm</w>
kh ứ
kh ía</w>
k ín</w>
it a</w>
inte rests</w>
insec t</w>
in ary</w>
in al</w>
ill nesses</w>
il s</w>
identi fication</w>
i ""."</w>
hỏ ng</w>
họ ng</w>
hạ n.</w>
hy per
hy dr
hu b</w>
her itage</w>
hear ing</w>
harv est</w>
h ẳ
h ư</w>
guil ty</w>
gre w</w>
giu ́p</w>
gi ày</w>
gi an,</w>
gener ated</w>
g as
fre sh
fla g</w>
fil ms</w>
fil led</w>
fil ed</w>
fic ally</w>
favor ite</w>
fat ality</w>
fac ial</w>
f et
exp ensive</w>
exp anding</w>
exp an
ex t</w>
ex ist</w>
eoro logical</w>
encour aged</w>
em ed</w>
eff ectively</w>
ear n</w>
ea ther</w>
e tings</w>
e h
e cho
e ast</w>
dra wn</w>
down town</w>
din ner</w>
difficul ty</w>
develop ments</w>
deli ver</w>
delay ed</w>
def ense</w>
dec reased</w>
deal ing</w>
d ắt</w>
d âu</w>
d orm
d at
cro p</w>
cri mes</w>
cont ained</w>
cont acts</w>
conn ected</w>
confir m</w>
con secutive</w>
chí nh.</w>
chí nh,</w>
chu ng,</w>
cho sen</w>
chi ều.</w>
char acter
ch ức,</w>
ch ủ
candi date</w>
c ổng</w>
c ạn</w>
c ười</w>
c áp</w>
buil dings</w>
bro w
break fast</w>
brea thing</w>
brea the</w>
bir ds</w>
beli eves</w>
be l</w>
ba bies</w>
b ắn</w>
awa reness</w>
aw are</w>
ass ess
as tern</w>
arri ve</w>
ari o</w>
ar an
applic ations</w>
ap ers</w>
anti bodies</w>
an t
alg orith
ak ing</w>
ag ents</w>
ad ing</w>
acc ep
ac com
abin et</w>
[' Các</w>
Zimbab we</w>
Y êu</w>
Y u
Y et</w>
W eb
Ving roup,</w>
Vin mart</w>
Vin Mart</w>
Vietnam Plus</w>
V ịnh</w>
V il
V alley</w>
Tu ần</w>
Tu oi</w>
T uyên</w>
T ra</w>
T in</w>
T ao
T ,</w>
Swe dish</w>
Sum mer</w>
Spea king</w>
Spe ars</w>
So phia</w>
Shang hai</w>
Semmelwe is</w>
S how</w>
Roosev elt</w>
Ro yal</w>
Ro bo
Q atar</w>
Prot ection</w>
Ph arm
Pennsylvan ia</w>
P ic
P ap
P S</w>
OS V</w>
O ver
O N</w>
Niñ a</w>
Ni nh.</w>
Mr s.</w>
Mid dle</w>
M ạnh</w>
M ười</w>
M ê</w>
M áy</w>
M oun
M an</w>
Lo an,</w>
L um
L ati
L as
L anc
Ku ala</w>
K ỹ</w>
In c.</w>
Hu ng
Her at</w>
H un
H ere</w>
H en
H as
Gu in
Gi ờ</w>
Gallu p</w>
G o</w>
Franc is
Fin ance</w>
F an</w>
F L
Eg yp
E s
E ner
D es
D H
Cur rently</w>
Coun cil</w>
Cor ps</w>
Ca tho
C ường</w>
C à</w>
C ris
C F
Bu s</w>
Bu i</w>
Blo om
Ber lin</w>
Belgi um</w>
B ear
B a.</w>
B M</w>
An th
8 0%</w>
7 th</w>
6 .000</w>
3 60</w>
24 3</w>
2030 ,</w>
20 ,</w>
2 70</w>
2 /
2 -
199 9</w>
199 5</w>
10 -
1 24</w>
1 22</w>
.” ']</w>
( tương</w>
' d</w>
' Cô</w>
“ Một</w>
“ Các</w>
ồ n,</w>
ố i.</w>
ắ ng.</w>
ắ n.</w>
ư a.</w>
đ ỗ</w>
đ ế</w>
đ áo</w>
Đ ặng</w>
Đ ông
Đ inh</w>
Đ i
ò ng,</w>
à ng,</w>
yế u
y one</w>
y i
y ellow</w>
x uy
x ,</w>
we dding</w>
wat ched</w>
vo te</w>
vi ces</w>
vers al</w>
v ắng</w>
um b
u t
tự ,</w>
tố t,</w>
typ ical</w>
tum n</w>
trẻ ,</w>
transpor ted</w>
tr ời.</w>
tr ật</w>
tr ăng</w>
tis sue</w>
tion ary</w>
ti oned</w>
ti k
thố ng.</w>
thố ng,</w>
thấ p,</w>
tho ái</w>
th ức,</w>
th ổi</w>
th ẳ
th ạo</w>
th âm</w>
tex t</w>
ter y</w>
ten ed</w>
tas ks</w>
tas k</w>
tari ffs</w>
t ăng,</w>
t i</w>
t ations</w>
suppor ted</w>
struc ture</w>
stre am</w>
str ain</w>
stor age</w>
stoc ks</w>
st ating</w>
st ages</w>
smo king</w>
sla u
seven th</w>
sal t</w>
s y</w>
s cr
rol led</w>
ri de</w>
regul ation</w>
re ality</w>
ran ks</w>
rainf all</w>
r ét</w>
py lob
public ation</w>
promo tion</w>
promis ing</w>
prof ile</w>
pri ze</w>
practi ces</w>
pr ay
pos ting</w>
popul ations</w>
popu lar
po ver
po sts</w>
ph en</w>
perman ent</w>
perfor man
performan ces</w>
pen al
par l
par king</w>
ou se</w>
origin ally</w>
org ans</w>
on able</w>
occup ational</w>
o type</w>
o k
nướ c
nh ự
n àn</w>
n one</w>
mạ c</w>
min ority</w>
millenni als</w>
me etings</w>
m ate</w>
lit er</w>
land sli
la di
ladi mir</w>
l ậu</w>
l ận</w>
ki a.</w>
khi ếp</w>
kh ăn.</w>
kh ái</w>
k ỳ
k itchen</w>
it i</w>
it ely</w>
ish a</w>
is ure</w>
ir i
inves tor</w>
inv as
inst alled</w>
ing redi
inf lam
im pres
im possible</w>
ill as</w>
ic ide</w>
i ors</w>
hộ p</w>
hơ n
hó a.</w>
hor mon
hi ển</w>
hand ling</w>
hand le</w>
h ào</w>
gor illas</w>
go m</w>
gam ing</w>
g ối</w>
g ained</w>
foun ded</w>
foun d
foc used</w>
flow ers</w>
fli c
festi vals</w>
fe wer</w>
fe e</w>
fat alities</w>
famili ar</w>
f ted</w>
f ly</w>
f it</w>
f arm</w>
ey e</w>
exten d</w>
expan sion</w>
exp ects</w>
eval uation</w>
euro s</w>
et te</w>
es cal
ent age</w>
ensur ing</w>
en a</w>
employ ed</w>
emer ged</w>
eff ecti
ed it
econom ies</w>
dri ve</w>
dorm it
do anh.</w>
diffe rences</w>
der n</w>
dem anded</w>
dec ree</w>
de ep
dau gh
d âng</w>
d ân.</w>
d ev
cứ u.</w>
cru cial</w>
cro ps</w>
cour ses</w>
continu ing</w>
connec tion</w>
confir ms</w>
conduc t</w>
con sci
con flic
con dem
comp ens
communic ation</w>
com prehensive</w>
col or</w>
col leges</w>
co pe</w>
clean ing</w>
ch úc</w>
c ỡ</w>
c ồn</w>
c ất</w>
c overs</w>
c ook</w>
c atch</w>
c able</w>
bur den</w>
bu b
br ink</w>
bigg er</w>
bi d</w>
bea ches</w>
b ốc</w>
b ọc</w>
b ận</w>
b arri
b al</w>
ax y</w>
attemp t</w>
atell ite</w>
ass ist</w>
as s</w>
ar rest</w>
ar io
appear ance</w>
ann ually</w>
analy sis</w>
an z
an j
amoun ts</w>
am il
am bassador</w>
am ,</w>
along side</w>
al ia</w>
al .</w>
ak i</w>
ag er</w>
aff ir
aff ects</w>
advan ced</w>
acti vely</w>
acad emic</w>
ab or
a qu
Yo shi
X i
Vin amil
Vide o</w>
VN Đ
VA S</w>
V o</w>
V ladimir</w>
V )</w>
USD ),</w>
U y</w>
Tu ổi</w>
Tr ị</w>
Tokyo ,</w>
To b
Ti m</w>
The refore</w>
Th ành,</w>
Th ough</w>
Tes la</w>
Tel evision</w>
T ử</w>
T ìm</w>
T ab
Ste phen</w>
So ci
Sh in
Scot t</w>
Schul enberg</w>
S é
S tr
S mart</w>
S el
S ear
S af
S )</w>
Ro y</w>
Resp on
Re gion</w>
R a
R )</w>
Q uyết</w>
Q om</w>
Ph ản</w>
Ph ượng</w>
Ph one</w>
Part nership</w>
Ohi o</w>
Nu en
Ni el
N ói</w>
Mexic an</w>
Mar ia</w>
M ức</w>
M ong</w>
M et
M ag
M .</w>
Ly ons</w>
Lu ân</w>
Li em</w>
Lab or</w>
L ung</w>
L es
K ing</w>
K ID
KID O</w>
Jord an</w>
J ames</w>
Iran ian</w>
ID AS</w>
IC O</w>
Hy un</w>
H ải,</w>
Fun d</w>
Foo t
Fil m</w>
Fi ji</w>
FL C</w>
F ur
F re
Epidemio logy</w>
Elec tr
Dem ocr
Del hi</w>
Davi d</w>
D un
D on</w>
D am</w>
Ch ất</w>
Ch uyến</w>
Ch ro
C ra
C au</w>
Bri dge</w>
Braz ili
Blu e
Bear d
Banglad esh</w>
B C
Aus tria</w>
An ti
An dro
AD IDAS</w>
? ',</w>
8 th</w>
7 0,000</w>
4 5
3 2
3 /
20 .
2 30</w>
199 8</w>
19 .
14 .
12 th</w>
12 .</w>
10 5</w>
1, 5</w>
1 33</w>
1 13</w>
1 000</w>
00 ,</w>
( một</w>
( I
( CD
( 1,
' Ông</w>
' ]"</w>
"" không</w>
ợ ,</w>
ỗ n</w>
ỉ ,</w>
ẽ ,</w>
ẻ ,</w>
ậ p.</w>
ạ t,</w>
đổ i.</w>
đấ u.</w>
điể m.</w>
đ ến.</w>
Đ iểm</w>
ú a</w>
ô n,</w>
ô i,</w>
ì a</w>
ã ng</w>
à nh.</w>
Ú c.</w>
you ng
xu ất.</w>
x ing</w>
w ine</w>
vậ t.</w>
volunte ers</w>
vie wed</w>
v ẽ</w>
v oc
v ital</w>
v a
us ti
under go</w>
un lawful</w>
un clear</w>
u .',</w>
tuổ i
trou ble</w>
tri ps</w>
tr ộn</w>
to ol</w>
ti ng
ti al</w>
thấ y,</w>
thê m:</w>
thu ật.</w>
thu ật,</w>
th ực,</w>
th ở.</w>
th ần.</w>
th ông.</w>
th inks</w>
th ai.</w>
tax es</w>
targ ets</w>
tal king</w>
t ụt</w>
t ẩy</w>
t ours</w>
t ough</w>
t elling</w>
t .']</w>
số ,</w>
sá ch,</w>
sust ainable</w>
strugg ling</w>
stre aming</w>
str ange</w>
stand ard</w>
sp ell</w>
soldi ers</w>
so át,</w>
sit ting</w>
sid es</w>
sid ers</w>
sharp ly</w>
sh ore</w>
sec onds</w>
s on,</w>
s inking</w>
ri ê
ri ver</w>
ri c</w>
ret ail
respon ses</w>
resid ential</w>
rescu e</w>
represent atives</w>
recommend ations</w>
ra w</w>
r ắc</w>
quy ền.</w>
qu ên</w>
qu ang</w>
pun ishment</w>
proc ed
pres ented</w>
pre mature</w>
plan et</w>
pic tures</w>
pic k</w>
phò ng.</w>
ph il
ph as
perc entage</w>
pas s
parl ors</w>
par liam
p raised</w>
p -
oun ded</w>
op position</w>
ond ary</w>
od les</w>
ob jects</w>
nor th
non- governmental</w>
no odles</w>
nh ở</w>
ngh ĩ
ng ầm</w>
ng ue</w>
ng ang</w>
multi -
mu gg
mo thers</w>
mis sions</w>
min ent</w>
mi ti
medic ines</w>
me al</w>
maint aining</w>
magaz ine</w>
ma xim
m ỏ</w>
m óc</w>
m ãi</w>
m ic</w>
m ai</w>
lụ c,</w>
lu ck</w>
lit ers</w>
leg s</w>
la ).</w>
l ụt</w>
l õ
kno ws</w>
kilomet er</w>
kh ôi</w>
ke ,</w>
k u</w>
k m
k iện,</w>
jo int</w>
issu ing</w>
is tic</w>
investig ated</w>
inv est</w>
intro duce</w>
instruc ted</w>
in tru
im pose</w>
il ,</w>
identi fying</w>
ide as</w>
i ”</w>
hồ i.</w>
hẳ n</w>
hum an
hom el
ho sting</w>
hea ds</w>
h ảo</w>
h ưởng.</w>
h ình.</w>
h ung</w>
h en</w>
h .</w>
gr ap
giờ .</w>
giả m.</w>
gi ớ
gi ếng</w>
gi áp</w>
gg ing</w>
gen cies</w>
ge ograph
g ạ
g à</w>
fu els</w>
for cing</w>
flu ids</w>
floo ds</w>
ferti liz
fe at
f ran
exerc ises</w>
exam ples</w>
estim ate</w>
est yle</w>
emp lo
em on</w>
em ics</w>
electr onic</w>
eg g</w>
effecti veness</w>
earthqu ake</w>
e. g.</w>
e w
e tion</w>
du ties</w>
dro pping</w>
don ated</w>
di arr
del ay</w>
defin itely</w>
d ội</w>
d ệt</w>
d ấy</w>
d ùng.</w>
d ò</w>
d áng</w>
d ust</w>
d ash</w>
cy to
cur e</w>
cryp to</w>
cru de</w>
crow ded</w>
critici zed</w>
coun ts</w>
corona viruses</w>
conven i
control led</w>
contrac ting</w>
con vers
con .</w>
compu ters</w>
competi tive</w>
compet e</w>
comp on
commun es</w>
comm is
collabor ation</w>
cl ass
ci vi
chế ,</w>
chú ng,</w>
chick en</w>
chi ế
char acter</w>
chan ces</w>
certific ates</w>
categ ory</w>
campa ig
camer as</w>
cam pus</w>
c ấy</w>
c king</w>
c er</w>
c ats</w>
bus y</w>
bro ther</w>
brea d</w>
bo tt
billion aire</w>
bi an</w>
bi F
benef it</w>
b ướ
b ò
b itcoin</w>
ax it</w>
av ing</w>
auth or</w>
audi ence</w>
at ta
at ories</w>
at est</w>
at ers</w>
ass istant</w>
as ,</w>
arti sts</w>
arg u
ar o</w>
appro xim
ances tors</w>
an xi
an ian</w>
ame work</w>
alleg ations</w>
all ergy</w>
ail ed</w>
adv ance</w>
acqu ired</w>
ach u</w>
ac tual</w>
X u</w>
Win dows</w>
Wil d
W eather</w>
VN PT</w>
VN 54</w>
VABIOTEC H</w>
U V</w>
Turk men
Tu ấn,</w>
Tra ining</w>
Toyo ta</w>
T ạp</w>
T âm</w>
T ren
T on
T iểu</w>
Sus hi</w>
Su ch</w>
St ore</w>
Ser vices</w>
Sab eco</w>
S t</w>
S ky</w>
S iri</w>
Rw anda</w>
Reu ter
R C</w>
Q uynh</w>
Prof essor</w>
Pro gram</w>
Pik achu</w>
Pho eni
Pet er
P H
O ur</w>
Nh u</w>
Ng o</w>
Nam ."</w>
N ghi</w>
N an
N a
N AS
Mỹ )</w>
Myan mar
Mus li
Mol d
Mo biF
Mi ch
Massachuset ts</w>
Mar ch
Mac ron</w>
M ẹ</w>
M ạng</w>
Lot te</w>
Lim ited</w>
Leb an
L y</w>
Kha si</w>
K in
K al
Jo int</w>
J er
J ack
Internet .</w>
I s</w>
I )</w>
Hy und
Hu u</w>
H à,</w>
H au
H anh</w>
Gr ill</w>
Gol den</w>
Gen ev
Fin ancial</w>
Fi re
Fed eral</w>
Faceboo k,</w>
F e
F )</w>
Ener gy</w>
E liz
Di vision</w>
D r
D anh</w>
Comm on</w>
Co. op</w>
Campuchi a.</w>
CE Os</w>
C ủ</w>
C ậu</w>
C ann
C al
C ),</w>
Beard son</w>
B ắc.</w>
B ris
B on
B ird</w>
B ill
Argen tina</w>
Ar dern</w>
Alzheim er</w>
AirPo ds</w>
Ad 5</w>
A i
A be</w>
A M
A E
9 th</w>
4. 0</w>
4 10</w>
3 50</w>
3 00.000</w>
200 .000</w>
20 .000</w>
2 19</w>
2 12</w>
199 4</w>
19 0</w>
1. 6</w>
1. 4</w>
( M
( H
"" một</w>
“ không</w>
“ Nếu</w>
ớ p</w>
ọ c,</w>
ẻ .</w>
ậ t
đổ i,</w>
đị nh
đê m,</w>
đ ụng</w>
đ ắp</w>
đ ạn</w>
đ ú
Đ ộ.</w>
è .</w>
ã i.</w>
â n
  được</w>
yu an</w>
y en</w>
xu ân</w>
win ner</w>
web sites</w>
wat ching</w>
was h</w>
wal king</w>
w r
w ealth</w>
volun t
vit amin</w>
viol ate</w>
val ued</w>
v ỏ</w>
v ement</w>
v ac
ur a</w>
un less</w>
uc k</w>
tố i.</w>
tố i,</w>
twe et</w>
tru ly</w>
tro gen</w>
tric s</w>
trans gender</w>
trad ers</w>
tr uy
tr i</w>
tr ang.</w>
ti ền,</w>
the aters</w>
th ực.</w>
th ôi</w>
th ank</w>
techni que</w>
targ eting</w>
targ eted</w>
t ỏ
t ắt</w>
t ường</w>
t ùng</w>
t ted</w>
surpris e</w>
sup ports</w>
subst ance</w>
sub -
su itable</w>
stu dio</w>
stro ke</w>
streng then</w>
streng th
str ation</w>
st one</w>
sp reads</w>
si nh
sharehol ders</w>
shar p</w>
sh a</w>
sep h</w>
sel fi
se is
s ỹ</w>
s ụp</w>
s ạn,</w>
s or</w>
run way</w>
rou gh</w>
ro les</w>
ris on</w>
ri ties</w>
restric t</w>
res istance</w>
repatri ation</w>
remo te</w>
relation ships</w>
rel ative</w>
recy cling</w>
recru it
recomm ends</w>
re min
re ferred</w>
ran k</w>
ra il</w>
r ay</w>
r ad
qu esti
prog res
pro longed</w>
pri ority</w>
prevent able</w>
pres ent
pover ty</w>
popular ity</w>
poli s</w>
po t</w>
phú t.</w>
phu ̣</w>
pho to</w>
phiế u,</w>
per mits</w>
per mit</w>
pe ace
pas sport</w>
p t</w>
p h</w>
out door</w>
or d</w>
opportun ities</w>
opin ion</w>
on .</w>
om a</w>
ol dest</w>
ob t
ob st
o ts</w>
o thy</w>
nă ng,</w>
nu ts</w>
nh ịp</w>
nh é
nh i</w>
nghiệ p
ng .']</w>
ng ).</w>
nation ally</w>
mạ i,</w>
má u,</w>
mus cle</w>
movi es</w>
mov es</w>
moun tain</w>
modi fied</w>
minim um</w>
mid night</w>
meas ured</w>
me c</w>
manufacture r</w>
maj iri</w>
m ỹ</w>
m ượ
m ươi</w>
m ù</w>
m ented</w>
m ath</w>
m all</w>
m .',</w>
lậ p,</w>
là m.</w>
lu x
licen se</w>
li o</w>
li min
li fe
landsli des</w>
l ực,</w>
l ỡ</w>
l ưỡi</w>
l ưng</w>
l í</w>
l ay</w>
l ang</w>
kể .</w>
ki ên</w>
ki êm</w>
ki ng
ki e</w>
k ì</w>
k em</w>
k el</w>
jum ped</w>
jour ney</w>
jour nal
iz hi</w>
it bur
it ate</w>
ist ers</w>
is ten
invol ves</w>
invol vement</w>
invas ive</w>
inter view</w>
inter nationally</w>
inten se</w>
inte rested</w>
inst all</w>
inj ection</w>
indus tries</w>
immigr ants</w>
ide l</w>
id ity</w>
i z</w>
hạ i,</w>
hydro xychloroquine</w>
ho sts</w>
hi ếp</w>
her self</w>
har dest</w>
h ear</w>
gu ide</w>
gu aran
gre atly</w>
grad uation</w>
giả m,</w>
gi fts</w>
gh ing</w>
gener ations</w>
gener ate</w>
gen s</w>
ga thered</w>
g ỗ</w>
g ã
g ov
fu sion</w>
frequ ent</w>
flu id</w>
fli es</w>
fin als</w>
ff ic</w>
feat ured</w>
f lower</w>
f ati
f are</w>
f air</w>
f ab
expl ain</w>
ex emp
evacu ated</w>
et c</w>
er i
equ ality</w>
ep iso
ep ing</w>
entrepreneur s</w>
enn y</w>
en os</w>
emis sions</w>
em or
el ev
ef s</w>
ecti ous</w>
eat en</w>
e ng</w>
dụ c.</w>
dặ m</w>
dr o</w>
dr inks</w>
distribu ted</w>
dispu tes</w>
discus sed</w>
direc tive</w>
diarr he
des er
def end
de als</w>
dar k</w>
d ur
d or
cả m.</w>
cu ồng</w>
cu sto
crow ds</w>
cor dingly</w>
contrac tor</w>
contam inated</w>
connec ting</w>
conn ect</w>
complic ated</w>
compet ent</w>
comfor t</w>
coll ection</w>
cockro ach</w>
clu sters</w>
clo sures</w>
cli ents</w>
circum stances</w>
cir cul
chế .</w>
chó ng.</w>
chuy ể
cho se</w>
chil d
char ity</w>
ch ật</w>
ch ùa</w>
ch urch</w>
ch u</w>
ch ell
ch ea
centr es</w>
canc ell
cal cul
c úng</w>
c ited</w>
c at</w>
c ac
bá o.</w>
bur n</w>
bub ble</w>
broad casting</w>
bri ngs</w>
bon ds</w>
bo ys</w>
bo tu
block chain</w>
bil ateral</w>
b ọt</w>
b ắc,</w>
b ắ
b o</w>
ati cally</w>
at ar
as y
as tic</w>
as t,</w>
as hed</w>
approxim ately</w>
appe aring</w>
app ing</w>
app er</w>
ap plying</w>
antibio tics</w>
an ni
aly sis</w>
all ets</w>
ali ve</w>
al lig
al es</w>
air y</w>
ag a</w>
af raid</w>
ad ays</w>
acc ept</w>
acc el
ac les</w>
ab ilities</w>
ab eth</w>
a- Vũng</w>
[' Một</w>
You tube</w>
Xu ất</w>
Wo ol
Wi esel</w>
War ner</w>
Vinamil k</w>
VND 1</w>
VF S</w>
V er
Up on</w>
Tri nh</w>
Tra ffic</w>
Tr ading</w>
Tim othy</w>
Ti ếp</w>
Ti ếng</w>
Th ắng</w>
Th ung</w>
Su b
Soci ety</w>
Smith son
Sey chell
Sa har
SARS-CoV- 2.</w>
S ud
S ind
S ars</w>
S ao</w>
Rị a-Vũng</w>
Ri ch
Res id
Republi can</w>
Re quest</w>
R yan</w>
R h
Qu á</w>
Qu een</w>
Q R</w>
Produc tion</w>
Ph ú,</w>
Pati ents</w>
Ox ford</w>
Ng u
N ăng</w>
N is
N early</w>
N ad
Mu sic</w>
Mi chi
Me tro</w>
Mar k</w>
Man agement</w>
Luxembour g</w>
Lt d</w>
L ần</w>
L on
L an
L I</w>
K ông.</w>
K ras
K as
Jour nal</w>
Jo seph</w>
Isra el
Initi ative</w>
Inf ectious</w>
I cel
Hy dro</w>
Hol dings</w>
Har a</w>
H uynh</w>
Gu ang
Gi ai</w>
Gal axy</w>
GM A</w>
G ro
G M</w>
Fran k</w>
Fore casting</w>
Foot ball</w>
Flapp y</w>
F idel</w>
F am
Ex change</w>
Eliz abeth</w>
Egyp t</w>
E l</w>
E cho</w>
E arly</w>
Di e
Democr atic</w>
D izhi</w>
D ak
D NA</w>
Coun ty</w>
Cong o</w>
Clin ton</w>
Ch urch</w>
Ch ange</w>
Ch an</w>
Ch a</w>
Catho lic</w>
Cas tro</w>
C ửa</w>
C lar
Bu enos</w>
Bel ar
Bar ack</w>
B ờ</w>
B ãi</w>
Asi ad</w>
Ang ela</w>
An im
Airlin es,</w>
Ad ditionally</w>
Ac cordingly</w>
AE ON</w>
A did
A T</w>
A B
? ”</w>
9 .000</w>
8 -
7 7
5 00,000</w>
3. 8</w>
3 20</w>
26 8</w>
201 3,</w>
198 8</w>
197 4</w>
17 th</w>
16 th</w>
10 6</w>
10 .</w>
1 25</w>
1 10</w>
) ."</w>
' Điều</w>
" Những</w>
" Bộ</w>
“ L
“ Khi</w>
ử a,</w>
ứ ng,</w>
ớ c</w>
ỗ ,</w>
ỉ .</w>
ẩ n.</w>
ả ng,</w>
ạ nh,</w>
ạ ch
ạ ,</w>
Ư ớc</w>
đ ề,</w>
đ ẻ</w>
đ áy</w>
đ án</w>
Đo àn</w>
Đ ồn</w>
Đ ịnh</w>
ê ̣
é t,</w>
ã ,</w>
á i,</w>
z be
y n</w>
x ả</w>
x ô</w>
x e,</w>
worsen ing</w>
work place</w>
wel come</w>
wel com
welcom ed</w>
w ish</w>
w are
w allets</w>
viru t</w>
vi ên
val ids</w>
v ạch</w>
v ors</w>
unh ealthy</w>
tạ o,</w>
trẻ .</w>
trop ol
trigg ered</w>
tr ời,</w>
tr ương</w>
tr ation</w>
ton .</w>
tiz ens</w>
tim ate</w>
thô i.</w>
thu ần</w>
the ory</w>
th ă
th ép</w>
th áp</w>
th r
th a</w>
t ạng</w>
t ent</w>
t els</w>
t ells</w>
t ancy</w>
t .”</w>
sử ,</w>
sẻ ,</w>
sá t.</w>
surpris ing</w>
surpris ed</w>
sup posed</w>
sum mit</w>
subsidi ary</w>
sub stances</w>
sub mitted</w>
su m</w>
su gar</w>
stro nger</w>
ste el</w>
st uck</w>
sol ve</w>
sho o
sent ence</w>
selfi e</w>
sel ected</w>
seis mic</w>
sea food</w>
san i
sani tiz
s àn</w>
s ory</w>
s ever
sever ity</w>
s ashimi</w>
rol ls</w>
rit en
ris t
revol ution</w>
retur nees</w>
resear cher</w>
res orts</w>
re ve
re sur
re d
rain y</w>
r apper</w>
r anging</w>
pus hed</w>
pu lation</w>
psycho logists</w>
provi der</w>
proced ure</w>
predic ted</w>
pos sibility</w>
pois oning</w>
play er</w>
pl us</w>
phụ c,</w>
pho sph
ph àn</w>
ph à</w>
ph o</w>
per mitted</w>
pay ing</w>
pain ting</w>
p ino</w>
over ies</w>
ov ascular</w>
oo th</w>
of er</w>
ob ject</w>
o z
o logical</w>
o gen</w>
ni ght
nh óc</w>
ng ”.</w>
ne e</w>
ne ,</w>
n ọc</w>
n ặng,</w>
n on</w>
n ea
n atur
mặ t,</w>
mus cles</w>
mp toms</w>
moun tains</w>
mod ation</w>
mo on
medic ation</w>
meas uring</w>
mean ing
may be</w>
maxim um</w>
mas ter</w>
mas sage</w>
mar athon</w>
m ộ
m ỏng</w>
m al</w>
là :</w>
ly ch
lych ees</w>
loc ality</w>
lis ts</w>
limin ary</w>
li ze</w>
let ters</w>
le g</w>
las er</w>
land .</w>
la ),</w>
kỷ .</w>
khẩ u.</w>
khẩ u,</w>
không ?</w>
kho áng</w>
kh ứ</w>
kh ol
k el
jour nal</w>
it t
it es</w>
investig ations</w>
inter vention</w>
inter pre
inter nal</w>
inten si
in sul
in e.</w>
implem entation</w>
i to</w>
i ana</w>
i -
hormon es</w>
holi days</w>
ho ại</w>
ho ạ</w>
ho ping</w>
har m</w>
ha ps</w>
ha ir</w>
h ỗn</w>
h ẻ
h ùng</w>
h à</w>
gồ m:</w>
gì .</w>
gre atest</w>
gradu ates</w>
gi ục</w>
gi ận</w>
gg ed</w>
gene tically</w>
fi re
fi ers</w>
fer ring</w>
fati gue</w>
fas test</w>
fac il
expor ters</w>
exam ination</w>
evacu ate</w>
enti rely</w>
enti ane</w>
enjo yed</w>
employ ers</w>
em phas
ell ec
el led</w>
effici ency</w>
ear nings</w>
e h</w>
e dition</w>
e ch
e ber</w>
dự ng.</w>
dư ỡ
down p
dow ns</w>
dol lar</w>
do w</w>
do g</w>
dis crimin
dis aster</w>
direc tion</w>
diarrhe a</w>
di t</w>
develop ers</w>
destro yed</w>
dep ic
defend ants</w>
dec eased</w>
deb t</w>
daugh ters</w>
dat ab
dar ity</w>
d oms</w>
d ay,</w>
d ai</w>
củ ng</w>
cấ p
cả nh.</w>
crypto currencies</w>
cri tically</w>
cre ation</w>
cr ash</w>
correc t</w>
cor respon
contribu tion</w>
contribu ted</w>
contr over
contain er</w>
cont ains</w>
conc ept</w>
comp ly</w>
com par
col on
cockro aches</w>
co p
co c
cinem as</w>
cid es</w>
ci an</w>
chứ ng,</w>
chú a</w>
chec king</w>
chec ked</w>
chatbo ts</w>
ch ốt</w>
ch ép</w>
celebr ated</w>
categ ories</w>
c ực.</w>
c ột</w>
c ool</w>
c m</w>
c ake</w>
bụ ng</w>
bệ nh
bur ns</w>
bri ef
biết ."</w>
be t</w>
barri ers</w>
ban ana</w>
bad ly</w>
bacter ial</w>
b ắp</w>
b ound</w>
b ones</w>
b ill</w>
av en
autonom ous</w>
attrac tive</w>
at em
assess ment</w>
assa ul
ass ons</w>
arch it
apo logi
ap pointed</w>
anxi ety</w>
anni vers
am bi
am az
alter native</w>
al ization</w>
adop ted</w>
ad ise</w>
achi eve</w>
accur ate</w>
accoun ted</w>
accom modation</w>
ab sor
a ero
\ xa0</w>
Zeal and,</w>
You ng</w>
With out</w>
Wat er
Vi entiane</w>
VND 10</w>
VF S-
Ul tra</w>
US NS</w>
U zbe
U n</w>
U g
Turkmen istan</w>
To wer</w>
To m</w>
Tim e</w>
Tik i</w>
Thiên- Huế</w>
Th ường</w>
Te a</w>
T ưởng</w>
T ô</w>
T ám</w>
T C</w>
T B</w>
Sy mptoms</w>
Su p
Sene gal</w>
SU 290</w>
SARS-CoV- 2,</w>
S ử</w>
S in
S car
S ai</w>
S a,</w>
Ri o</w>
Res ort</w>
Rail way</w>
RON 92</w>
R um
Pre mi
Pol and</w>
Pep si
O )</w>
Nuen en</w>
Niel sen</w>
Ni en</w>
Ng ôi</w>
N ow
N ature</w>
N ag
N O
Mosk v
Mo tor</w>
Mari em</w>
M ườ
M ón</w>
M uni
M assons</w>
Lum pur</w>
Li nh,</w>
Li ke</w>
L ạt</w>
L ạp</w>
L úc</w>
L ôi</w>
L ãnh</w>
L ink
L ex
Ku wait</w>
Ken ya</w>
K y
K riten
K ho
K CN
J ac
Ira q
Indones ian</w>
In valids</w>
In sider</w>
In c</w>
IC U</w>
I stan
I gn
I ,</w>
Hyund ai</w>
Hum an</w>
Hu ỳnh</w>
Hi ến</w>
Hang -
H ’
H ữu</w>
H ùng,</w>
Gu atem
Gu ard</w>
Gre en</w>
Gra b</w>
G ao</w>
Fili pino</w>
Fi ve</w>
Fal kland</w>
FD A</w>
F ine</w>
Exp lo
En ter
E st
E ,</w>
Die go</w>
Dan ish</w>
D ưới</w>
D ương.</w>
D ai</w>
Con te</w>
Colum bia</w>
Campuchi a,</w>
C ường,</w>
C òn</w>
C âu</w>
C B</w>
Bo ard</w>
Bill board</w>
Bi eber</w>
Banglad es
B ởi</w>
B ão</w>
B ol
B e</w>
Ar my</w>
Anth ony</w>
Andre w</w>
An sley</w>
A th
A side</w>
A part</w>
A mo
A il
A V
A U
A C</w>
9 0
8 .000</w>
6. 5</w>
6 th</w>
3 0.000</w>
26 2</w>
25 th</w>
2030 .</w>
201 4.</w>
2. 6</w>
198 9</w>
198 0</w>
18 th</w>
15 7</w>
14 2</w>
12 ,000</w>
10 th</w>
1 35</w>
( tiếng</w>
( V
( U
( T
( COVID-19
( 6
“ Đây</w>
ự c
ẩ n,</w>
ầ u.</w>
̀ i</w>
ơ ,</w>
đê m.</w>
đu ôi</w>
đ ức</w>
đ ời.</w>
đ ồi</w>
đ ống</w>
đ ập</w>
đ ường.</w>
Điể n,</w>
Đ ơn</w>
ă n
ã i,</w>
á p,</w>
à n.</w>
à .</w>
Í t</w>
   
z ni
z ech</w>
y an
x ói</w>
writ er</w>
writ e</w>
wr apped</w>
wor e</w>
weigh ing</w>
ware house</w>
war n</w>
w oo
w ise</w>
vụ ,</w>
vắc-x in.</w>
vắc-x in,</w>
ven ue</w>
vec tor</w>
vap ing</w>
vacc inated</w>
v ĩ</w>
v án</w>
v ory</w>
v or</w>
v eter
uy en</w>
usti ano</w>
us .</w>
us ,</w>
ur ities</w>
up date</w>
under ground</w>
um es</w>
tâ m,</w>
tá c,</w>
tuy ết</w>
tur ns</w>
tur ning</w>
tun ately</w>
trướ c
tric k</w>
tra dition</w>
tr ưa</w>
tr ends</w>
tr ending</w>
tr ance</w>
tou ched</w>
tou ch</w>
to w
to pped</w>
to ,</w>
tiế p.</w>
tim .</w>
ti ền.</w>
ti ves</w>
ti an</w>
thu ̉</w>
thu r</w>
th ức
th ế.</w>
th ư.</w>
th ơ</w>
th ánh</w>
th ri
th ong</w>
th es
th an
te es</w>
tack le</w>
t- x
t ước</w>
t ư.</w>
t une</w>
t asked</w>
t ane
t all</w>
sự ,</w>
sả n.</w>
sá ng.</w>
susp ending</w>
surve yed</w>
super vision</w>
sup pl
suc cee
sub mit</w>
su icide</w>
star ts</w>
st ories</w>
st ol
st atistics</w>
ssi l</w>
spor ting</w>
spokes woman</w>
so ạn</w>
six th</w>
si vely</w>
si ght</w>
shor tly</w>
shi pped</w>
shel ter</w>
sep tic</w>
see ks</w>
sec ondary</w>
se where</w>
scen ario
scenario s</w>
scap e</w>
scand al</w>
sau ce</w>
s áp</w>
s sel
s ounds</w>
s ons</w>
s mugg
s atellite</w>
rừ ng.</w>
rup t</w>
ro yal</w>
ro ll</w>
ri ting</w>
restric ted</w>
res istant</w>
repatri ated</w>
rel s</w>
regi stration</w>
regi ster</w>
recomm end</w>
rec ession</w>
re opened</w>
re fri
refri ger
ra er</w>
quy ền,</w>
qu anti
qu al
qu a
pus h</w>
psycho logy</w>
prote ins</w>
proper ties</w>
pro ficiency</w>
pri ori
priori tiz
preven ted</w>
prepar ation</w>
pre liminary</w>
pow ers</w>
port fo
pl eas
pic ked</w>
physi cally</w>
phi ền</w>
ph ì</w>
ph a
pesti cides</w>
perc ei
pat ched</w>
pan ic</w>
pan el</w>
pa ir</w>
p ink</w>
p ets</w>
p ath</w>
oun ce</w>
oro tr
organis ms</w>
op tion</w>
op tim
ol a</w>
of lot</w>
o ther
o gram</w>
o :</w>
nã o.</w>
này .']</w>
nutri tion</w>
nh ớ
nh ỏ,</w>
nh ầm</w>
nh a</w>
ng e</w>
ne u
n ồng</w>
n ơi.</w>
n ơi,</w>
n or</w>
n in
n avi
n av
n an</w>
mẹ ,</w>
mình .”</w>
mp tomatic</w>
mosqu ito</w>
mis s</w>
minim ize</w>
mi x</w>
mi ting</w>
memb ran
medic inal</w>
manag ing</w>
maint ained</w>
m ới
m ốc</w>
m ỏi</w>
m ỏ
m ạn</w>
m òn</w>
m ist
m ates</w>
m ang
m ."</w>
lậ p.</w>
là m,</w>
loc ate</w>
lo ạ
lo v
lim its</w>
licen sed</w>
li ng
li miting</w>
li ft</w>
let ting</w>
leng th</w>
le isure</w>
law makers</w>
la i,</w>
kindergar ten</w>
kilo gram</w>
khỏ e
kho an</w>
khi êu</w>
kh ánh</w>
kh uyết</w>
kh en</w>
k m.</w>
k ies</w>
k er
jo ining</w>
j us
is ition</w>
is a</w>
investig ating</w>
intru sion</w>
inspec tion</w>
inf ant</w>
improv ing</w>
ik u</w>
id en</w>
i b
i .”</w>
họ p,</w>
hur t</w>
hun ting</w>
hospit alized</w>
hoo ds</w>
ho ã
histor ic</w>
head quarters</w>
har der</w>
har d
h ình,</w>
h in
h an
gro cer
giá o.</w>
gi t</w>
gi ft</w>
gi an.</w>
g ương</w>
g l
g ang</w>
fri ed</w>
fresh water</w>
frau d</w>
fran ch
fr amework</w>
fore station</w>
foo t</w>
fo ssil</w>
flo wn</w>
fertiliz er</w>
fer ry</w>
fe ren
fan tas
f arms</w>
expres sway</w>
exc ep
ex trac
ex press</w>
ex act</w>
ev ere</w>
escap ed</w>
es tra</w>
er ings</w>
er ated</w>
er .</w>
en trance</w>
emp ty</w>
emo tional</w>
emer ging</w>
emer gencies</w>
emb ar
el ine</w>
ed ged</w>
eco system</w>
eas ing</w>
earthqu akes</w>
eal ing</w>
e z</w>
e tik
du es</w>
dre w</w>
dr ama</w>
dr al</w>
doz en</w>
doub led</w>
don ors</w>
do anh,</w>
develop er</w>
den ly</w>
declar ations</w>
dea d
de fined</w>
dang er</w>
d ẹp</w>
d ơi</w>
d less</w>
d d
d airy</w>
d a.</w>
có .</w>
cy ber
cul tiv
cu ps</w>
cr ashed</w>
cou ghing</w>
convers ation</w>
contribu tions</w>
cont est</w>
cont a
consid ers</w>
consid er
confid ent</w>
concentr ated</w>
con vic
compl etion</w>
compens ation</w>
comp ound</w>
comp li
comb ination</w>
comb ank</w>
coll ecting</w>
co stly</w>
co ordin
clou d</w>
clo th</w>
clim bed</w>
chứ ng.</w>
ch ấ
ch im
ch at</w>
celeb rities</w>
cardi ovascular</w>
cap able</w>
cancell ation</w>
ca o
c ư,</w>
c ơm</w>
c ông
c ài</w>
c a.</w>
bur ned</w>
bro thers</w>
bran ch</w>
boy friend</w>
blu e</w>
ble eding</w>
bl in</w>
bit es</w>
bi dden</w>
ber y</w>
bacter ium</w>
b ú
b ón</w>
b p
b locked</w>
b loc
b es
b ans</w>
b anh</w>
b acked</w>
audi ences</w>
asy mptomatic</w>
as signed</w>
as onic</w>
arr ang
annivers ary</w>
anc ou
am in
am i
all er
algorith m</w>
al um
al ed</w>
ak h</w>
ak ed</w>
ak e
agg res
ag ree</w>
accur acy</w>
acc ept
ab s
ab is</w>
a z</w>
a chi</w>
Zeal and
Z i
Yor k,</w>
Y SEA
X anh</w>
X -r
Woo dy</w>
Wo zni
With in</w>
W y
W el
W ei
Vir gin
Vil ni
Vi enna</w>
Veg as</w>
VN A</w>
V ài</w>
V ancou
US S</w>
U p</w>
U ng</w>
Tru c</w>
Tra v
Tr ịnh</w>
Tr úc</w>
Tob ago</w>
Ti ên.</w>
Ti ên,</w>
Thu ận,</w>
Tha m</w>
Th ần</w>
Th ương,</w>
Th orotr
Te gn
T ĩnh</w>
T un
T ea
T N
Syri an</w>
Sy n
Stu dies</w>
St orm</w>
St adi
Spec i
Seychell es</w>
Scar bor
Sam o
Sal ustiano</w>
S ea
S P
Rom ania</w>
Rec ently</w>
R ou
R aj
Poli cy</w>
Po k
Pl ay
Philadel phia</w>
Phi .</w>
Phi -
Peter sbur
Pap ua</w>
Pan asonic</w>
P res
P ort</w>
P av
P P
OS H
Ni k
Ni chol
Nhi ễm</w>
Ng ai</w>
NAS A</w>
Mon ac
MobiF one</w>
Mer kel</w>
Mauriti us</w>
Mat t</w>
Mar tin</w>
Mad uro</w>
M ới</w>
M ạch,</w>
M anh</w>
M H
M C</w>
M ,</w>
Lt d.</w>
Li êm</w>
Kriten brink</w>
Kras no
Kim ,</w>
Kaz akh
Kar achi</w>
K rist
K le
K Y
Jo sh</w>
Jo ong</w>
J av
J as
In telligence</w>
In di
In c
I BM</w>
Hy giene</w>
Hun dreds</w>
Ho tels</w>
Ho spit
Hi en</w>
Hear t</w>
He il
Han son</w>
Ham let</w>
HIV /
H on
H im
H al
Goog le,</w>
Go gh</w>
Gi ới</w>
Gi ống</w>
Gen e
G overn
G ir
G ate</w>
G aga</w>
G 4</w>
Francis co</w>
Franc is</w>
Fore st</w>
F R
Ethiop ia</w>
Er do
Emb raer</w>
Em manu
E astern</w>
E U
E F
E 5</w>
Du blin</w>
D ha
D eb
D O
Cro ati
Cong ress</w>
Communic ations</w>
Co oper
Chu ́ng</w>
Char les</w>
Cha ul</w>
Cha m
Ch uyên</w>
Ch ic
Ch ec
Ch anh</w>
Cas es</w>
Car ol
Cambo dian</w>
Cam eron</w>
C át</w>
C zech</w>
C lo
C RI
Bus in
Bu etik
Brazili an</w>
Bo m</w>
Bl ack
Be er</w>
B ức</w>
B our
B est</w>
Ar thur</w>
Andro id</w>
Am id</w>
Am bassador</w>
Aer oflot</w>
Adid as</w>
A bi
A H
8 2</w>
8 0.000</w>
8 0
7 .000</w>
7 ,000</w>
6 0,000</w>
6 0%</w>
6 -
5 00
5 %.</w>
4 3
3 ""</w>
23 %</w>
200 1</w>
20 9</w>
2. 2</w>
2 80</w>
2 33</w>
2 ""</w>
18 .
17 9</w>
16 0</w>
15 .000</w>
12 .000</w>
1. 1</w>
1, 3
1, 2</w>
1 3.
1 1.</w>
000 .</w>
0. 5</w>
/ 8</w>
.v n</w>
( ví</w>
( US
( 4
' Tuy</w>
' Nhưng</w>
' Các</w>
" Người</w>
" Cô</w>
“ Điều</w>
“ Họ</w>
’ ll</w>
ổ .</w>
̉ i</w>
̀ m</w>
đó i</w>
đo ạt</w>
đ ớ
đ ĩa</w>
đ ông,</w>
đ iệu</w>
đ iện.</w>
Đ ôn</w>
Đ en</w>
ü l
í p</w>
è o.</w>
è ,</w>
á p.</w>
z o</w>
young est</w>
you th</w>
y m
y i</w>
y cle</w>
y .',</w>
xu ống.</w>
xo áy</w>
x ứng</w>
x í
x à</w>
x ong</w>
wro ng</w>
worri es</w>
war nings</w>
w o
w ,</w>
vu ̀ng</w>
vill agers</w>
vic tory</w>
vi ết,</w>
vi su
venti lation</w>
ven ues</w>
ven d
ve iled</w>
v ĩnh</w>
v ast</w>
un veiled</w>
un expected</w>
ud i</w>
u ti
tạ o.</w>
tô i.</w>
tà u,</w>
tw ins</w>
tw ater</w>
tru ng,</w>
transi ting</w>
tr ống</w>
tr ùm</w>
tr òn</w>
tr ol
tr ag
tox ins</w>
tou ching</w>
to o
to l</w>
tiế c</w>
tici ans</w>
ti me
ti ll</w>
ti ed</w>
thí ch,</w>
thu ốc.</w>
threat ening</w>
thous and</w>
the o
the dral</w>
tha o,</w>
th ọ</w>
th ận,</w>
th ạch</w>
th ính</w>
th é
th ám</w>
th ành,</w>
th under
th ick</w>
th ai,</w>
ter min
tem ple</w>
te ly</w>
ta g</w>
t ủ</w>
t ướ
t ơ</w>
t les</w>
t ch</w>
t ar
t ap
t ably</w>
t ;</w>
t )</w>
sá u,</w>
sà ng.</w>
swe et</w>
susp ic
subst anti
sub scri
su red</w>
strugg le</w>
strate gies</w>
storm qu
sto red</w>
ster ious</w>
ster ile</w>
startu ps</w>
st yle</w>
spid er</w>
spec ul
spac es</w>
sn akes</w>
slau ghter</w>
sk a</w>
si zed</w>
shi r
sharehol der</w>
sex ually</w>
ser vo
sen s
sen iors</w>
sec retary</w>
sear ches</w>
se ngers</w>
se g
scre ened</w>
scho ol
sal twater</w>
sal aries</w>
sa ving</w>
s sing</w>
s ort</w>
rộ ng.</w>
rồ i,</w>
rush ed</w>
ru ồi</w>
ru z</w>
ru b
ric s</w>
ri ble</w>
resid ence</w>
requ ests</w>
repres ents</w>
reli able</w>
regul arly</w>
regar dless</w>
ref ers</w>
reduc es</w>
recruit ment</w>
rec overing</w>
rec overies</w>
reas onable</w>
re servo
re serve</w>
re pu
re opening</w>
re la
re fu
re alized</w>
re ,</w>
ra rely</w>
r èn</w>
r ho
rho sis</w>
proto co
protoco l</w>
promo ting</w>
produc es</w>
proc essed</w>
pro minent</w>
pro jected</w>
pri mar
primar ily</w>
pre mis
poli cem
pol yp
po wered</w>
plac ing</w>
pl u
pil gri
phổ i.</w>
pho on</w>
phim ,</w>
ph ải.</w>
ph ái</w>
ph r
pesti ci
pestici de</w>
perf ect</w>
pati ng</w>
p se</w>
p apers</w>
ow ns</w>
ou ts</w>
organiz ing</w>
organiz ers</w>
oper ators</w>
oper ational</w>
op e</w>
on ym
on set</w>
on ji</w>
on er</w>
om ing</w>
om i</w>
off erings</w>
obst acles</w>
ob served</w>
o zone</w>
nu ốt</w>
nin th</w>
nhu ận.</w>
nh ỏ.</w>
nh ư
ng ực</w>
ng ọ
ng  
ng a</w>
ng ."""</w>
nec k</w>
ne ed
natur ally</w>
n ấ
n ú
n CoV
n .']</w>
mạ ch.</w>
mượ n</w>
má y.</w>
my sterious</w>
mur der</w>
mu ố
mov ements</w>
mis information</w>
mi êu</w>
mer ch
men tion</w>
mem ories</w>
mar king</w>
manufac tured</w>
manag ers</w>
m ”</w>
m ỳ</w>
m ù
m ood</w>
m on</w>
lí p-
lux ury</w>
lu lar</w>
lo nging</w>
lo an</w>
lo ads</w>
liệ u,</w>
lis tening</w>
liqu id</w>
lin ks</w>
le ase</w>
lar ation</w>
l ốc</w>
l ặng</w>
l ăng</w>
l ên
l ers</w>
kh ớp</w>
kh óc</w>
kh an</w>
k í</w>
k ph</w>
k m,</w>
k iệt</w>
jus tice</w>
j ack
j a
itt sbur
isten ce</w>
is s</w>
is each</w>
is .</w>
introduc tion</w>
int ellec
ingredi ents</w>
inc enti
in s
if ying</w>
i ting</w>
i fication</w>
i ang</w>
i Phone</w>
i ;</w>
họ .',</w>
hấ p.</w>
hã m</w>
hyper tension</w>
hur ric
hou sing</w>
hon ored</w>
hol ders</w>
ho ạch.</w>
hi red</w>
hi de</w>
he w</w>
happ ening</w>
hal ted</w>
ha iling</w>
h ủ
h ôi</w>
gã y</w>
gu ides</w>
gi ỏi</w>
gi ặt</w>
gi ật</w>
gi ây</w>
ge o
g un
g ases</w>
g al
found ation</w>
fo x</w>
fi nger</w>
fav or</w>
fail ing</w>
f led</w>
expor ter</w>
explo itation</w>
expl ains</w>
exac tly</w>
evol ution</w>
ev ac
evac uation</w>
et ery</w>
et ers</w>
et ,</w>
establish ments</w>
ep ic
enti tled</w>
engine ers</w>
end ang
encour aging</w>
emo tions</w>
ell o</w>
eli gible</w>
electr ical</w>
el sewhere</w>
ed ,</w>
e z
e v</w>
e gr
dự ng,</w>
duyệ t.</w>
dump ing</w>
dro ve</w>
dre aming</w>
distribu tion</w>
dispu te</w>
di ves</w>
di versi
di os</w>
dem anding</w>
del eg
deb ate</w>
d ạ
d are</w>
d a,</w>
d '
cá ,</w>
cy cle</w>
cu red</w>
cri tic
cooper ating</w>
coo ked</w>
control ling</w>
cont ext</w>
consu med</w>
cons istent</w>
concentr ation</w>
con doms</w>
complic ations</w>
competi tors</w>
co ins</w>
co co
civi li
chu ́</w>
chu a</w>
chi ps</w>
che onji</w>
char ter</w>
chan nel</w>
ch ừng</w>
ch ặ
celebr ations</w>
ce ed</w>
carri es</w>
care fully</w>
care ful</w>
cann abis</w>
canc el</w>
c ận.</w>
c ám</w>
c i</w>
c ay</w>
c ard</w>
c ab
c )</w>
bur ial</w>
bu t
brow ser</w>
broad cas
bri bery</w>
bott les</w>
bom b</w>
bl amed</w>
beli ef</w>
beg ins</w>
bar rels</w>
b ị
b ó
b led</w>
b in
b ic
b ats</w>
b ang.</w>
aw ai
awai ting</w>
avo iding</w>
aul t</w>
attac king</w>
attac ked</w>
at tribu
at al</w>
asser t</w>
ass ess</w>
arg o</w>
archipel agos</w>
ar y
appe al</w>
any where</w>
anti viral</w>
an ting</w>
an no
an ced</w>
allig ator</w>
alleg edly</w>
al lies</w>
ak ers</w>
ail s</w>
addre ssed</w>
ad ic
ad diction</w>
acqu isition</w>
accep ted</w>
ac compan
aband oned</w>
ab used</w>
a ”</w>
a hu
a bi
[' Những</w>
Z one</w>
Z h
Yor k.</w>
Y our</w>
Y em
Wozni ak</w>
Wor ldwide</w>
Wor ld
Wil co
W it
W en
W .</w>
Vinc ent</w>
Vin ac
Vin AI</w>
Venezu el
VND 2</w>
VN00 54</w>
V ol
V ang</w>
Uzbe k
Un til</w>
US A</w>
UN I
UNI CE
Tra il</w>
Tr ắng</w>
Tim or</w>
TikTo k,</w>
Thu ốc</w>
Th ạnh</w>
Th ạch</w>
Th ác</w>
Tegn ell</w>
Tech combank</w>
Tao iseach</w>
TH PT</w>
T ướng</w>
T ai</w>
St ar</w>
Shin cheonji</w>
Sci ences</w>
Saf ety</w>
SU V</w>
S ĩ</w>
S or
S oc
S ky
S I</w>
Respon se</w>
Re present
R et
R ath
R .</w>
Qu ả</w>
Qu ý</w>
Premi er</w>
Pok emon</w>
Phi- líp-
Ph ố</w>
Ph ái</w>
P o</w>
P la
P ittsbur
P att
P at
Or acle</w>
O pp
Nộ i."</w>
Nor ton</w>
Nichol as</w>
Ni ên</w>
Nh ật,</w>
N D</w>
Myanmar ,</w>
Musli m</w>
Mor rison</w>
Mor gan</w>
Mold ova</w>
Min nea
Micro sof
Mi ền</w>
Met eorological</w>
Me dia</w>
Mari time</w>
Malaysi a.</w>
Mal dives</w>
Ma x</w>
MH 370</w>
M ô</w>
M and
Ly re
La c</w>
L ục</w>
L ạc</w>
L at</w>
L as</w>
Krist eller</w>
Ki ds</w>
Kh u
Kazakh stan</w>
KCN A</w>
K hang</w>
K el
Jack son</w>
JP Y</w>
J ona
J im</w>
J enni
J ama
Israel i</w>
Icel and</w>
Hang- seo</w>
Han o
H ậu</w>
H ạnh</w>
H eli
H ea
H aving</w>
H T
Gra ham</w>
Gol f</w>
Gi ang.</w>
G lobally</w>
For mula</w>
Fo x</w>
Fire fox</w>
F air</w>
F B
Emmanu el</w>
Electr onics</w>
Do ha</w>
Dis ney</w>
Dec laration</w>
D om
D e</w>
Cu ban</w>
Con struction</w>
Co ast</w>
Clin ic</w>
Cho i</w>
Ch ánh</w>
Ch nam</w>
Ch en</w>
Cap ital</w>
Cam bridge</w>
CO P
CO 2</w>
CD 4</w>
CD 4
CB S</w>
C ấm</w>
C at</w>
C arri
C P
Buetik ofer</w>
Bris tol</w>
Belar us</w>
Bak ery</w>
B ồ</w>
B iden</w>
Ara b</w>
An ton
Amo k</w>
Al ter
Al bert</w>
ASEA N
AI D</w>
A ward</w>
A udi</w>
A l</w>
A g
A ar
A J
8 4
7. 5</w>
7 8</w>
5. 5</w>
5 2
3. 3</w>
3 3,
25 ,000</w>
24 /
201 1,</w>
20 th</w>
20 25
20 1</w>
20 .</w>
2 40</w>
2 2,
2 1,
199 3</w>
199 1</w>
199 0s</w>
19 9</w>
16 5</w>
14 ,
1, 8</w>
1 3,
1 28</w>
1 27</w>
1 16</w>
- la</w>
(CD C)</w>
( AI
' Và</w>
' Những</w>
' Họ</w>
"[' ""
"" có</w>
" Nhưng</w>
" Bà</w>
“ có</w>
“ các</w>
ữ a,</w>
ờ ,</w>
ố c
ế n
ả nh.</w>
ả nh,</w>
ướ t</w>
ướ c,</w>
ư a,</w>
đồ ng)</w>
đị a,</w>
đẹ p,</w>
đu ̉</w>
đ ủ.</w>
đ ời,</w>
đ ảo,</w>
Đ ừng</w>
Đ ạt,</w>
ú y</w>
ù n</w>
ê ́
ê .</w>
ã .</w>
â u.</w>
á nh,</w>
à ng.</w>
z es</w>
z er</w>
z en</w>
yế u,</w>
y s
y ar
y ""</w>
xuy ên,</w>
x ỉ</w>
x ướng</w>
x inh</w>
work places</w>
wit n
win ning</w>
who les
w riting</w>
w a</w>
vị .</w>
và o.</w>
vo tes</w>
vo ters</w>
vo ted</w>
viol ation</w>
vil le</w>
v ội</w>
v ề.</w>
v ươn</w>
v in</w>
ur is
u ph
u 200
u200 b
u )</w>
tw in</w>
tu ̣c</w>
trí .</w>
tri an</w>
trav en
transpor ting</w>
transi t</w>
trag edy</w>
tr ạ
tr ă
tr á
tr iệt</w>
tou gh
tiế ng.</w>
tiế ng,</w>
tin c
ti tude</w>
ti tled</w>
thị nh</w>
thị .</w>
thí ch
tho ại,</w>
the o,</w>
th ứ
th ề</w>
th ương,</w>
th iện.</w>
th ir
th al</w>
terror ist</w>
ten egr
techn ic
tag us</w>
t ăm</w>
t óm</w>
t áng</w>
t each</w>
t au
tau ght</w>
t ad
tad pol
sớ m,</w>
sẻ :</w>
sw imm
su its</w>
su es</w>
strength ened</w>
str ik
str anded</w>
str ai
sto pping</w>
stadi um</w>
spea ker</w>
sp on
sor ry</w>
so át.</w>
so l</w>
sm ell</w>
slow ed</w>
sle eping</w>
sit ed</w>
sho cked</w>
shi pping</w>
shi p
sh i</w>
sep sis</w>
sec ure</w>
se ed</w>
sch em
sal i
saf er</w>
sa ved</w>
sa ble</w>
s ởi</w>
s ưở
s ưu</w>
s ĩ.</w>
s âu,</w>
s wa
s ni
s isters</w>
s cam
s and
s ac
ru ột</w>
ru ling</w>
rou gh
ro s</w>
ro ots</w>
ro ng</w>
ro ck
riê ng.</w>
ris h</w>
ris es</w>
rich est</w>
ri vals</w>
revi sed</w>
reve al</w>
reti rement</w>
resu med</w>
res ting</w>
replac ement</w>
repe ated</w>
renew able</w>
ren cy</w>
remov ing</w>
reli ef</w>
re vo
re sum
re now
renow ned</w>
re mark
re jects</w>
rati o</w>
r ộn</w>
r gy
r anh</w>
pylob acter</w>
purch ased</w>
publis hing</w>
promp tly</w>
promis e</w>
produc tivity</w>
produc tive</w>
pro sp
pro secu
pro m</w>
pro be</w>
prepar ations</w>
precau tionary</w>
pre clinical</w>
pp ers</w>
pos s
portfo lio</w>
poly mer
polymer ase</w>
po or
poor ly</w>
pion e
phí .</w>
phé p.</w>
ph ấn</w>
penal ties</w>
peace ful</w>
pe fully</w>
pe anu
patho gen</w>
pat ches</w>
pas sports</w>
par tly</w>
p ska</w>
p ir
p ending</w>
p al
ow ski</w>
over come</w>
our ce</w>
ou yu
ou n</w>
organiz e</w>
or dering</w>
or ation</w>
on t</w>
on el</w>
ome z</w>
occas ion</w>
oc ol
oc el
ob j
o virus</w>
o tic</w>
o ka</w>
o )</w>
nur se</w>
no ting</w>
no m</w>
ni êm</w>
ni val</w>
nh anh,</w>
ng ữ,</w>
ng ụ</w>
ng ờ.</w>
neighb ouring</w>
neighb or</w>
neg l
ne tizens</w>
n òng</w>
n i</w>
n ),</w>
mạ ng,</w>
má u.</w>
mo tiv
miệ ng,</w>
miti gate</w>
meaning ful</w>
me tric</w>
may r</w>
mar ine</w>
m ờ</w>
m ộng</w>
m ọc</w>
m ũ
m alls</w>
lượ ng,</w>
lu ận.</w>
liter ally</w>
lin ing</w>
lif estyle</w>
li ve
li p</w>
lear ned</w>
lat ter</w>
land fall</w>
lan terns</w>
labor atories</w>
la u
l ực.</w>
l ồ
l ắ
l ấn</w>
l ường</w>
l ông</w>
l an.</w>
kịch ,</w>
ké m.</w>
ku iku</w>
kla hom
khứ ,</w>
kh ốc</w>
kel ey</w>
k reli
j u</w>
j amin</w>
itbur o</w>
it or</w>
ist an.</w>
ish i</w>
is cons
ir it</w>
inv ent
inten sity</w>
inflam mation</w>
inc redi
in duc
in doors</w>
in door</w>
in cu
in ci
in ations</w>
improv ement</w>
illi ng
if are
identi ty</w>
i ”.</w>
i ”,</w>
i OS</w>
i ""</w>
hộ ,</w>
hồ i,</w>
hô n.</w>
hun d
hund red</w>
hum idity</w>
hu ́t</w>
hu ahu
hom o
haz ards</w>
haz ard</w>
hand led</w>
ha b
h ổ</w>
h ò</w>
h es
h eight</w>
gì ,</w>
gre enh
grad ers</w>
gr ass</w>
govern or</w>
gi ọt</w>
gh an</w>
gar den</w>
gan .</w>
g ọn</w>
g ập</w>
g óc</w>
g oo
g ear</w>
fun ded</w>
ful ness</w>
form ic</w>
foot age</w>
follow s</w>
floo d
fl ash
finis h</w>
fe rences</w>
fe els</w>
fat al</w>
f an</w>
explo sion</w>
experim ent</w>
exam ine</w>
ex ha
et ooth</w>
et ary</w>
ester ol</w>
es ity</w>
er ic</w>
er als</w>
equi pped</w>
epidemio logical</w>
enti a</w>
ent ary</w>
eng age</w>
endang ered</w>
en ship</w>
en coun
ell ,</w>
eleph ant</w>
el low
el ed</w>
el ected</w>
el ds</w>
eigh th</w>
ec li
ear th</w>
e ties</w>
e e
e KY
dõ i,</w>
dri vers</w>
dra ws</w>
don ate</w>
doc k</w>
do .</w>
diễ n.</w>
dismis sed</w>
discus sions</w>
discrimin ation</w>
disc over</w>
dis infection</w>
di esel</w>
dev as
detail ed</w>
der ship</w>
depar ture</w>
dep end</w>
dem ands</w>
dea u
de forestation</w>
de but</w>
datab ase</w>
dam aging</w>
d ập</w>
d ẫ
d ướ
d ưa</w>
d ĩ</w>
d ùng,</w>
d enti
cấ m.</w>
cả ,</w>
cơ .</w>
cur b</w>
crypto currency</w>
cris es</w>
cre dit</w>
cre ates</w>
cra p</w>
corpor ate</w>
cor n</w>
conveni ence</w>
contribu ting</w>
contr ast</w>
conta gious</w>
consci ous</w>
confir ming</w>
condem ned</w>
compon ents</w>
communic ate</w>
commit ment</w>
coco a</w>
co w</w>
co ck</w>
co ,</w>
clou ds</w>
clo ser</w>
cli p</w>
cir rhosis</w>
chủ ng.</w>
chu ối</w>
chi ế
chi huahu
ch ọ
ch ur
ch ocol
ch est</w>
cer tain
cas hew</w>
cap tured</w>
cap ture</w>
cap tain</w>
c ủ</w>
c ố
c ước</w>
c lea
c ep
c ation</w>
c argo</w>
bả y,</w>
bả n.</w>
buý t,</w>
busin ess
bro th</w>
bp d</w>
blo g</w>
bl ame</w>
bil is
bi e</w>
bet ting</w>
ber ia</w>
behavi oral</w>
be gun</w>
ba ̀</w>
b ơm</w>
b ơi</w>
b ám</w>
b ra
b les</w>
b ills</w>
b each</w>
b able</w>
avi r</w>
au g
au ction</w>
attrac tions</w>
asp ir
asp ect</w>
arg ued</w>
ar ,</w>
any ah
anyah u</w>
announ ce</w>
ang thong</w>
an x
an a,</w>
amaz ing</w>
all ing</w>
al majiri</w>
al la</w>
ak er</w>
agr ant</w>
ag ina</w>
aff ord</w>
aff ord
aff airs</w>
adv oc
adop t</w>
ad ren
ad or</w>
ad ju
ad ,</w>
activ ated</w>
accompan ied</w>
accid ents</w>
acc o</w>
ac compli
abs ence</w>
\ u200b
[' Ông</w>
[' Vào</w>
Z ika</w>
YouTu be
YSEA LI</w>
X-r ay</w>
X -
Wild life</w>
Wh it
We b</w>
W iscons
W atch</w>
W all</w>
Việ t,</w>
Vin mec</w>
Vi ên</w>
V ật</w>
V òng</w>
V e
V ati
V TV</w>
Ur ban</w>
Un like</w>
US AID</w>
U .
Tĩ nh,</w>
Ty um
Trump .</w>
Tren ds</w>
Tra ditional</w>
Tr ấn</w>
Tr ang,</w>
Thorotr ast</w>
Thi ết</w>
Th ắng,</w>
Th ư</w>
Th ú</w>
Th er
T ối</w>
T ôn</w>
T bilis
T al
T ake</w>
Stu dents</w>
Stadi um</w>
St and
St an
Sr pska</w>
Sp irit</w>
Some times</w>
Soc rates</w>
So on</w>
Smithson ian</w>
Sind h</w>
Si nh,</w>
Sho res</w>
Sear ch</w>
Se attle</w>
San sha</w>
S ống</w>
S ĩ,</w>
S ense</w>
S en</w>
S ap
Ro eb
Ri ghts</w>
RT -
R ol
R em
Quốc ."</w>
Qu ality</w>
Q uy
Por tu
Pol itburo</w>
Po pulation</w>
Pl anning</w>
Pl ague</w>
Phoeni x</w>
Philippin es.</w>
Philipp ine</w>
Ph nom</w>
Petersbur g</w>
Pep si</w>
Pas sengers</w>
Par is,</w>
Par adise</w>
Pan ther</w>
P ó</w>
P ouyu
P hiên</w>
P es
Or tagus</w>
Olymp i
O klahom
O bl
Nha .</w>
Nh ưng,</w>
Nh ìn</w>
Net anyahu</w>
N à</w>
N eigh
N S
N G
N CE</w>
N BC</w>
Mườ i,</w>
Mu angthong</w>
Mor ning</w>
Mon tenegr
Mon ogram</w>
Mo z
Mo on</w>
Mexic o,</w>
May o</w>
Mas ter</w>
Mari e</w>
March On</w>
Mar athon</w>
Mal i</w>
Mad ai</w>
Ma p</w>
MS N</w>
ME R
M ối</w>
M i</w>
M D</w>
Lyre bird</w>
Lon don
Lo ew
Li m</w>
Leban on</w>
Lau rel</w>
L ối</w>
L àng</w>
L àm</w>
L ev
L en
L agos</w>
L E</w>
L .</w>
Ky rgy
Ki ếm</w>
Ki nh,</w>
Kh an</w>
Kab ul</w>
K ẻ</w>
K r
K iri
Jus tice</w>
Ji ang</w>
J ones</w>
J ag
J L
Ign az</w>
I rish</w>
I l
I A
Hol ly
Ho ward</w>
Ho ai</w>
Ho a,</w>
Heil mayr</w>
Hai phong</w>
HIV .</w>
H ill
H ep
Go d
Gi án</w>
Gi ve</w>
Ger man
Genev a</w>
Gam kreli
Ga el</w>
G omez</w>
G ,</w>
Fur ther</w>
For um</w>
For ces</w>
Faceboo k.</w>
F ah
F PT</w>
F .</w>
Ever yone</w>
E L
E K
E .</w>
Du tch</w>
Dis aster</w>
Dani ella</w>
D ựa</w>
D omin
D I
D ,</w>
Cris t</w>
Coun tries</w>
Cor ona</w>
Co de</w>
Ch ăm</w>
Ch ris</w>
Ch an
CRI SP
CD4 +</w>
C ẩm</w>
C ăn</w>
C á</w>
C r
Bu reau</w>
Bru ssel
Bro w
Bor is</w>
Bor deau
Blu etooth</w>
Ben jamin</w>
B ộ,</w>
B ố</w>
B ây</w>
B un
B ook</w>
B ifare
B at
Au to</w>
Ar tificial</w>
Ar e</w>
Am ir
Alex ander</w>
Al liance</w>
AV G</w>
AT M</w>
A ri
A gn
9. 5</w>
8 50</w>
7 37</w>
7 0.000</w>
6 /
5 00.000</w>
4. 0
4, 300</w>
4 6
4 20</w>
200 3,</w>
2. 1</w>
2 60</w>
2 1
197 5</w>
19 68</w>
19 4</w>
19 .</w>
19 ,
18 ,
16 2</w>
16 ,000</w>
15 1</w>
14 4</w>
14 3</w>
10 1</w>
1. 7</w>
1. 500</w>
1, 3</w>
1 34</w>
1 20,000</w>
1 )</w>
.” ',</w>
."" ']"</w>
. .</w>
) :</w>
(COVID-19 )</w>
( 2,
( $</w>
' “
' Trong</w>
"" các</w>
" Sau</w>
“ sự</w>
“ Những</w>
ỡ .</w>
ộ c.</w>
ồ n.</w>
ệ n.</w>
ễ n,</w>
ẹ o</w>
ặ t.</w>
ặ ng.</w>
ả y,</w>
̣ i</w>
̀ a</w>
ơ n.</w>
đị a.</w>
đấ u,</w>
đạ i,</w>
đá ,</w>
đo án,</w>
đ ền</w>
đ ấy</w>
đ ường,</w>
đ ê</w>
đ à</w>
đ am</w>
Đ ống</w>
Đ ắc</w>
Đ ạo</w>
Đ ăng</w>
Đ ô</w>
Đ áp</w>
Đ áng</w>
Đ am</w>
à nh
zo o</w>
y me</w>
y ers</w>
y e</w>
y ."</w>
xim ity</w>
x ăm</w>
x y</w>
worsen ed</w>
work force</w>
wor sen</w>
wild fire</w>
wi f
wal ks</w>
wai vers</w>
w l</w>
w ealthy</w>
vụ .</w>
voc ational</w>
vo ng,</w>
vie wing</w>
vi ế
ver sions</w>
ver ify</w>
veget able</w>
val u
v ời,</w>
v ề
v á</w>
ur ging</w>
under went</w>
un necessary</w>
un likely</w>
un employment</w>
un changed</w>
um a</w>
um ,</w>
u ống,</w>
u k</w>
u i</w>
u ."</w>
tụ c,</w>
tí ch.</w>
tâ m.</w>
tw el
tu ary</w>
transpa rent</w>
transpa rency</w>
trans mit</w>
tr ọn</w>
tr ăn</w>
tr es</w>
toxic ity</w>
top ic</w>
ton ight</w>
to il
to .</w>
tion ing</w>
til ity</w>
ti ne
thô n,</w>
thí ch.</w>
thu si
thro wn</w>
thro w</w>
tho ại.</w>
thi ết,</w>
ther mal</w>
the re
the me</w>
th ợ</w>
th ế,</w>
th ế
th ải.</w>
th ải,</w>
th ườ
th ương.</w>
th ư,</w>
th ân,</w>
th i.</w>
tex tile</w>
telec om
teen ager</w>
teen age</w>
techno logical</w>
te ars</w>
t ức.</w>
t ức,</w>
t ống</w>
t ị</w>
t ản</w>
t ư
t ình,</w>
t ân</w>
t am
symbo l</w>
swe red</w>
sw allowing</w>
sust ain</w>
sur ged</w>
sun light</w>
succee ded</w>
substanti al</w>
su dden</w>
su d
sud denly</w>
strai ght</w>
stra w</w>
stol en</w>
sti ck</w>
st ant</w>
st ance</w>
spo tted</w>
sp ar
sour ced</w>
soli darity</w>
so ng
so il</w>
so c
soc cer</w>
slow ly</w>
situ ated</w>
sig nal</w>
si ngs</w>
shut down</w>
short ages</w>
ship ments</w>
sha pe</w>
set tle</w>
set tings</w>
sen sus</w>
sear ching</w>
se ,</w>
scen es</w>
scen ario</w>
satis fy</w>
sanitiz ers</w>
safe ly</w>
sa .</w>
s ở
s ạt</w>
s ướng</w>
s ơn</w>
s ement</w>
s car
run ners</w>
ru ộng</w>
ru sh</w>
rough ly</w>
rou tine</w>
rou d</w>
ro b
retur ns</w>
respon ded</w>
resid es</w>
repa ir</w>
reg ard</w>
ref rain</w>
reco gn
read ers</w>
re marked</w>
re gre
re ference</w>
re actions</w>
re .</w>
radi ation</w>
rac ing</w>
ra d</w>
r ỉ</w>
r ải</w>
r ơm</w>
questi oned</w>
qu ầy</w>
qu á
purch asing</w>
psycho logical</w>
provi ders</w>
prov en</w>
promp ting</w>
program me</w>
pro portion</w>
pro bable</w>
prin cip
prepa res</w>
precau tions</w>
por tal</w>
poli tics</w>
po c
pl ex</w>
pl edged</w>
pi ec
phiế u.</w>
phim .</w>
ph ải,</w>
ph ác</w>
person ality</w>
per haps</w>
pe trol</w>
pe des
patho gens</w>
particip ate</w>
parti cles</w>
parti ci
partici pating</w>
parti ally</w>
parliam ent</w>
p roud</w>
p ron
p ful</w>
p a</w>
oz on</w>
oxy gen
ow nership</w>
over loaded</w>
ov en</w>
ou gh
other wise</w>
ore st</w>
opin ions</w>
op ens</w>
oo m</w>
on ers</w>
ol ine</w>
ol es
ol ds</w>
ok ly
occup ying</w>
obt ained</w>
ob servers</w>
ob servation</w>
ob esity</w>
o s
o logist</w>
o .',</w>
north west</w>
non- profit</w>
ni ên,</w>
nhự a,</w>
nhấ t
nhi ều,</w>
nhi ên
nh ũng</w>
ngườ i."</w>
ngh ệ.</w>
ngh ẹt</w>
ng ựa</w>
ng ạ
ng "",</w>
new born</w>
navi gation</w>
nav al</w>
n ứt</w>
n ạ
n ôn</w>
n ar
mạ nh
má y,</w>
mus eum</w>
mul tin
mosqu e</w>
mob il
mit ting</w>
min or</w>
millenni al</w>
mil it
migr ation</w>
mi nh.</w>
messa ging</w>
mer cur
ment ally</w>
membran e</w>
medic ations</w>
mechan ism</w>
me th
man slaughter</w>
ma d</w>
m ề
m ắm</w>
m ũ</w>
m úa</w>
m anner</w>
lượ ng.</w>
lõ i</w>
lá ,</w>
ly rics</w>
lo ng,</w>
lo ,</w>
liệ u.</w>
live li
lis ting</w>
li ngs</w>
le gr
lay er</w>
law yer</w>
law suit</w>
las h</w>
lap top</w>
langu ages</w>
land fill</w>
la id</w>
l ễ
l ươn</w>
l ôi</w>
l ò
l ê</w>
l unar</w>
l en
l em
l am</w>
l ake</w>
ké mon</w>
kno wing</w>
ki ềm</w>
ki ế
kho ảnh</w>
kh ổ</w>
ke en</w>
karao ke,</w>
k owski</w>
k nee</w>
k iller</w>
k g.</w>
k al
jud ges</w>
jud ge</w>
j uris
j ailed</w>
it ors</w>
isol ating</w>
ish ing</w>
is ine</w>
is ation</w>
investig ators</w>
inten ded</w>
intellec tual</w>
inte resting</w>
institu te</w>
inst ant</w>
innov ation</w>
ing rad</w>
infor m</w>
inf ants</w>
indic tment</w>
indic ate</w>
incu b
incid ents</w>
incid ence</w>
incenti ves</w>
in traven
in spir
in i</w>
in ev
in equality</w>
id u</w>
id st</w>
i .
i ,”</w>
hồ .</w>
họ ng,</w>
hẻ m</w>
hậ u,</w>
hấ p,</w>
hạ i.</w>
hydro gen</w>
hy gi
human ity</w>
hu ỷ</w>
hot spots</w>
homel ess</w>
ho ạn</w>
ho ành</w>
ho s
hiể m,</w>
hi ring</w>
her o
hel pful</w>
head lines</w>
hea ded</w>
he at
haz ard
hazard ous</w>
hat ever</w>
h ẹp</w>
h ái</w>
h itting</w>
h its</w>
gu est</w>
gro ss</w>
greenh ouse</w>
gradu ate</w>
gol den</w>
go ers</w>
giớ i."</w>
giá ,</w>
gir l
gi ữ.</w>
gi l
gi ants</w>
geograph ical</w>
gen es</w>
gas oline</w>
gan ,</w>
g e,</w>
fron t
form al</w>
for th</w>
foc using</w>
foc uses</w>
flo ating</w>
fl ag
fin ds</w>
fab ric</w>
f ies</w>
f eared</w>
expl ore</w>
experim ental</w>
exp enses</w>
ex plan
ex hi
every where</w>
ess ,</w>
es tive</w>
es tion</w>
ero sion</w>
er a</w>
equ al</w>
epic enter</w>
enjo ying</w>
engine er</w>
eng agement</w>
eng aged</w>
en thusi
en ce
eleph ants</w>
el le</w>
ed a</w>
ed .</w>
ecli pse</w>
ea ble</w>
dụ c
dặ m)</w>
dur ation</w>
dru g
dro ps</w>
dre ssed</w>
dre ss</w>
dr ills</w>
dormit ories</w>
do ạ</w>
dispu ted</w>
dis rup
dis patched</w>
dis ci
disci pl
dis as
dis appeared</w>
dis advantage</w>
direc tors</w>
di alysis</w>
di alo
desig ner</w>
desig n
des ired</w>
den y</w>
dem ocr
dem entia</w>
deb ts</w>
de hydr
de emed</w>
dam ages</w>
d âm</w>
d ám</w>
d ying</w>
d ness</w>
d ent</w>
d able</w>
cyto k
cre ative</w>
cr ashes</w>
cou pled</w>
corpor ations</w>
cor ruption</w>
cooper ated</w>
cooper ate</w>
coo kies</w>
continu ous</w>
connec tions</w>
conduc ting</w>
concentr ate</w>
con stant</w>
con servation</w>
con ce
con ,</w>
compar ison</w>
communic ations</w>
commis sion</w>
comm it</w>
comm emor
collea gue</w>
coll ap
co ol
co m</w>
cle arly</w>
choo sing</w>
chol esterol</w>
chocol ate</w>
cho ols</w>
chihuahu a</w>
chi ên</w>
cham pion
cham pi
ch ức.</w>
ch ì
ch éo</w>
ch é
ch á
ch ess</w>
centur ies</w>
centr e</w>
car ds</w>
campaig ns</w>
cal m</w>
cac bon</w>
c ”</w>
c ởi</w>
c ống</w>
c ối</w>
c ốc</w>
c ư
c khol
c and
c akes</w>
bả n,</w>
bướ u</w>
bur ied</w>
bri bes</w>
bran ches</w>
br ac
botu lin
boo king</w>
boar ding</w>
biết .']</w>
biết .',</w>
bi c</w>
bes to
be longing</w>
be ating</w>
be an</w>
bas ically</w>
ban king</w>
bal ance</w>
b ị,</w>
b ể</w>
b óc</w>
b ình.</w>
b ã
b ách</w>
b á</w>
b à,</w>
b un
b loo
b is
b att
b at</w>
b ank
aw a</w>
auth enti
au tumn</w>
attrac ting</w>
attend ants</w>
attend ant</w>
atta ched</w>
at orial</w>
as .</w>
archipel ago</w>
ap poin
anti body</w>
ant as</w>
announ cing</w>
ann ers</w>
anj a</w>
analy ze</w>
an swered</w>
an sw
ama chi</w>
am idst</w>
aly mp
alter n
al t
al ists</w>
aj ik
aggres sive</w>
ag gre
ag en</w>
ag e
affir med</w>
activ ation</w>
accompli ces</w>
accept able</w>
abo ard</w>
ab ad</w>
a )</w>
a 's</w>
a ""</w>
[' “
[' Trong</w>
X ét</w>
X in</w>
X i</w>
Wor kers</w>
Wilco x</w>
Wh y</w>
Wei bo</w>
Wal sh</w>
W ater</w>
W RI</w>
Vi nh,</w>
Vancou ver</w>
Vacc ines</w>
VND 50</w>
VN00 62</w>
VN G</w>
V ợ</w>
V ườn</w>
V ac</w>
V T</w>
V T
Uzbek istan</w>
Uni versal</w>
Ug anda</w>
UNICE F</w>
U y,</w>
U sing</w>
Tuy et</w>
Tran s
Tr ận</w>
Tr ăng</w>
To an</w>
Th ỏa</w>
Th ơ</w>
Th ánh</w>
Th rough</w>
Th eron</w>
Th anh,</w>
Tem ple</w>
T ương</w>
T ùng,</w>
T ác</w>
T à
T yp
T ina</w>
T atar
T ajik
T ae</w>
T S</w>
T O
T H</w>
T A</w>
Sur ve
Sur in
Sum mit</w>
Su per</w>
Su ga</w>
Sto ckhol
Singapore .</w>
Si êu</w>
Sho p</w>
Sh e
Samo a</w>
S ĩ.</w>
S port</w>
S n
S ino</w>
S ed
S chools</w>
S ang</w>
S a.</w>
S SI</w>
Rẫ y</w>
Rom ag
Ris k</w>
Rich ter</w>
Resp iratory</w>
Re gi
Rath ore</w>
RON 95</w>
R ồi</w>
R ome</w>
R eal
R ea
R ,</w>
Qu ỳnh</w>
Q i
Q antas</w>
Pouyu en</w>
Po kémon</w>
Pi x
Phi ến</w>
Ph úc,</w>
Ph òng,</w>
Ph ân</w>
Pe tro
Par alymp
PH E</w>
P ric
P en
P RE
P ,</w>
Os lo</w>
On co
Obl ast,</w>
OSH A</w>
Nov el</w>
No bel</w>
Nhu ng,</w>
Ng u</w>
N ạn</w>
N ơi</w>
N um
N ish
N 1</w>
Moskv a,</w>
Montenegr o</w>
Minis ters</w>
Michi gan</w>
Mat the
Mar s</w>
Ma j
Ma ch
M umb
M ul
M obile</w>
M em
M anu
M anti
M ail</w>
M W</w>
Lạ p,</w>
Loew enberg</w>
Lo an.</w>
Link ed
Li on</w>
Lati n</w>
Las kowski</w>
Lanc elo
Lab our</w>
L ộc,</w>
L ạng</w>
L ào,</w>
L iệu</w>
L and</w>
Kyrgy z
K ite</w>
K inda</w>
K i</w>
Ju t
Jenni fer</w>
Jav a</w>
Jac kie</w>
J en
J ack</w>
Investig ators</w>
Investig ation</w>
Internet ,</w>
I o
I CO
Hu an
Ho ài</w>
Ho iana</w>
Heli ogen</w>
Har ry</w>
Hai yan</w>
H ỏa</w>
H ạt</w>
H ương,</w>
H uy</w>
H ill</w>
H el
Gò n.</w>
Go d</w>
Gi o</w>
Gh ana</w>
German watch</w>
Gen er
G ã</w>
G went</w>
G uy
G ren
G il
Fac e</w>
FB I</w>
F orm
F alls</w>
F ,</w>
Explo rer</w>
Ex pres
Euro monitor</w>
Environ mental</w>
Enter tainment</w>
E qu
E mil
E dge</w>
E cu
E ach</w>
Du ke</w>
Dec ree</w>
Da wn</w>
D y
D er
D C</w>
D B
Cre il</w>
Cor p</w>
Con duc
Communic able</w>
Com pu
Clar a</w>
Chec k</w>
Ch ín</w>
Californi a,</w>
COP D</w>
CO C</w>
C ựu</w>
C ulture</w>
C ir
C abinet</w>
C T</w>
C G
Bus an</w>
Budd h
Bu ff
Bro wn</w>
Bro okly
Braz il,</w>
Bar cel
Banglades h,</w>
Bak u</w>
Bah rain</w>
Ba idu</w>
Ba ha
B ăng</w>
B í</w>
B ình.</w>
B á</w>
B is
B ia</w>
B everage</w>
B anja</w>
Azerbaij ani</w>
Argen tin
Air bus</w>
Afgh an</w>
A k
A R</w>
A G</w>
A 3
9 0.000</w>
9 0,000</w>
9 -
7 5%</w>
6 9
6 50</w>
6 0.000</w>
6 )</w>
5 50</w>
5 10</w>
36 9</w>
30 th</w>
30 -
3. 6</w>
3, 5</w>
3 ."</w>
25 1</w>
25 0,000</w>
25 /
24 5</w>
24 .
23 /
201 7
201 3.</w>
201 2.</w>
20 -
2. 8</w>
19 th</w>
19 4
18 8
18 7</w>
17 7</w>
17 2</w>
17 ,
16 3</w>
15 th</w>
15 /
15 -
15 ,</w>
14 9</w>
13 %</w>
12 %</w>
10 9</w>
1 17</w>
1 "",</w>
0 4</w>
.. .
. 000-
( sinh</w>
( khoảng</w>
( bao</w>
( S
( L
( 9
' Chúng</w>
' Bà</w>
""" Tôi</w>
"" .']"</w>
" Khi</w>
“ những</w>
“ một</w>
“ Có</w>
ủ y,</w>
ộ t.</w>
ỗ .</w>
ọ ng,</w>
ị u</w>
ậ y,</w>
ẫ y</w>
ấ u.</w>
ạ nh.</w>
̀ n</w>
ũ .</w>
đớ n</w>
đạ o.</w>
đú ng.</w>
đô .</w>
đô ).</w>
đi ên</w>
đ ực</w>
đ ố</w>
đ ậm</w>
đ ảo.</w>
đ ươ
đ iệ
đ a
Đị a</w>
Đ ợt</w>
Đ ộ
ü n
ú t,</w>
ú .</w>
ù y</w>
ñ or
í nh.</w>
í gu
ê -
é c</w>
á t-x
Á o</w>
Á o,</w>
yi p</w>
ye ong
y int
yint an</w>
y -
x ấp</w>
x ưởng</w>
x ưa</w>
x es</w>
wor ry</w>
wor n</w>
won der</w>
with drawn</w>
wit ness</w>
win dow</w>
wild fires</w>
wh el
wea k</w>
we t</w>
we d
w ra
wra p</w>
w all</w>
w age</w>
vị t</w>
vị ,</w>
volunt arily</w>
viol ent</w>
viol ated</w>
vill ages</w>
vide o,</w>
vi ếng</w>
vi d
vi ce
vi ,</w>
ver ing</w>
ver dic
veget arian</w>
van ol</w>
vac ation</w>
v ựng</w>
v ịnh</w>
v ặt</w>
v ành</w>
v on</w>
v om
v ity</w>
v as
use pp
usepp e</w>
us ting</w>
ur as</w>
up dates</w>
under way</w>
un t</w>
un covered</w>
un common</w>
u vin</w>
u sage</w>
u pper</w>
u lu
tà u.</w>
tt i</w>
trạ ng,</w>
tru ́ng</w>
tru st
trust wor
transi tion</w>
trans lation</w>
tran sited</w>
tran h,</w>
tr ộ
tr út</w>
tr úng</w>
tr ình,</w>
tr ân</w>
tr iều</w>
tr ain
tow ns</w>
to án,</w>
to xin</w>
to wer</w>
to ngue</w>
to es</w>
to b
tob acco</w>
tiế p,</w>
tim ately</w>
ti tle</w>
ti st</w>
thị ,</w>
thấ y.</w>
thunder storms</w>
thu ế,</w>
thu ẫn</w>
thu ,</w>
thre w</w>
tho ả</w>
thi ế
therap ies</w>
than ked</w>
th ầm</w>
th ưởng,</w>
th ăng</w>
th ân.</w>
th áo</w>
th ành.</w>
th iệ
telecom munic
technic ians</w>
te -
tab let</w>
t ệ
t ập.</w>
t ôm</w>
t ó
t ty</w>
t ang</w>
t ac
sớ m.</w>
symp ath
sur ge
sun k</w>
strugg led</w>
struc tures</w>
strik es</w>
stric ken</w>
stri dium</w>
stormqu akes</w>
stimu lus</w>
ster il
ste pped</w>
stat ements</w>
stadi ums</w>
st ead
st ,</w>
spir it</w>
speci fically</w>
speci alized</w>
spe e
sp ends</w>
sou theast</w>
some where</w>
soli d</w>
so ph
sky rock
simil ar
sil k</w>
sil ent</w>
si mul
si ella</w>
sho ts</w>
sh ri
sh ed</w>
sh an</w>
sh all</w>
set t
ser ver</w>
ser o
sem en</w>
sec tions</w>
seas ons</w>
sear ched</w>
se f</w>
se emed</w>
scor ing</w>
scand als</w>
s ưng</w>
s ôi</w>
s witch</w>
s try</w>
s om
s mith</w>
s crap</w>
s at</w>
s :</w>
rush ing</w>
robo tics</w>
ro ,</w>
ris ky</w>
ri ng
revo ked</w>
retail ers</w>
ret t</w>
restric ting</w>
respon dents</w>
resol ved</w>
resid ency</w>
resi dues</w>
res ili
res ,</w>
repu tation</w>
repres ented</w>
repres ent</w>
replac ing</w>
rep lic
remov al</w>
rem y</w>
reli gion</w>
rel ating</w>
refriger ated</w>
recommend ation</w>
rec ur
rec k
rec ep
re verse</w>
re fin
re ferring</w>
rati ngs</w>
rap e</w>
ram med</w>
ra v
r ũ</w>
r õ
quarantin es</w>
qu ỵ</w>
qu ãng</w>
qu o
qu it</w>
pus hing</w>
publis her</w>
pu ts</w>
prot ects</w>
pro tested</w>
pro spec
pric ed</w>
pri vi
prev ents</w>
prev al
pres ti
pres sing</w>
pres cri
pre tty</w>
pr ac
posi ti
polyp ill</w>
poli ticians</w>
poc ong</w>
po site</w>
po real</w>
po aching</w>
pl a
piec es</w>
phé p,</w>
physi cs</w>
photo graph
pharmac ies</w>
ph ộng</w>
ph u</w>
perio ds</w>
per ial</w>
pedes trian</w>
pe i</w>
pe e</w>
par d</w>
pack aging</w>
pa tri
p tion</w>
p ounds</w>
p ills</w>
p et
p en</w>
p acked</w>
oxygen ation</w>
over whel
out standing</w>
out lined</w>
origin ating</w>
organis ations</w>
ore rs</w>
or poreal</w>
or ities</w>
or ,</w>
om ,</w>
ol ten
ol ar</w>
off shore</w>
ob li
o v</w>
o ph
o -
này .”</w>
no table</w>
nit ude</w>
ni ên.</w>
ni k</w>
ni ghts</w>
nhạ c,</w>
nhiễ m
nh ện,</w>
nh ôm</w>
nh anh.</w>
nh ai</w>
nh -
ng ắm</w>
nes o
neighbor hood</w>
need l
needl esti
needlesti ck</w>
ne uro
ne .</w>
nas ty</w>
nam ,</w>
n ”.</w>
n ”,</w>
n ổ
n ếm</w>
n ấm</w>
n ạn,</w>
n ô</w>
n om
n n</w>
n ).</w>
mắ n.</w>
mạ ch,</w>
my self</w>
municip alities</w>
mu tual</w>
mu q
monit ors</w>
mol ecu
migr ants</w>
met al</w>
mercur y</w>
merch ant</w>
meas u
me tro</w>
me ,</w>
mat ory</w>
mand u</w>
mag nitude</w>
m ồ</w>
m ẽ,</w>
m ẻ</w>
m ăng</w>
m âm</w>
m à
m un
m ons</w>
m illi
m ile</w>
lụ c.</w>
lạ nh.</w>
lã o.</w>
lock downs</w>
lo t
lo g
liệ t.</w>
lis ten</w>
lis hing</w>
ligh ted</w>
li t</w>
li ons</w>
li mit
li ers</w>
legi sl
lear ing</w>
lea dership</w>
le thal</w>
le ep</w>
le .</w>
las ting</w>
las ted</w>
lap tops</w>
lab orers</w>
la ze</w>
la d</w>
l ờ
l ỏ
l ắm</w>
l ầ
l ư
l ùi</w>
l on</w>
l acti
l ,</w>
kỳ .</w>
km 2</w>
kil os</w>
khác .',</w>
kh ăn,</w>
kh ét</w>
kh éo</w>
kh e</w>
ke ys</w>
ke i</w>
k ỉ</w>
k ĩ</w>
k is
k ic
k i</w>
k h</w>
juris diction</w>
jum p</w>
journal ists</w>
j ø
ish es</w>
is er</w>
ir ty</w>
ir s</w>
inv ite</w>
inter medi
inter kla
inter actions</w>
inter action</w>
insp ected</w>
initi ated</w>
inh ab
ine phr
indic ating</w>
in um</w>
in ner</w>
in adequate</w>
implic ations</w>
implem enting</w>
imp aired</w>
im posing</w>
ic ,</w>
iP ads</w>
iP ad</w>
i Be
iBe v</w>
i ."""</w>
i )</w>
hy po
hom et
homet own</w>
ho ả</w>
ho ạch,</w>
ho ped</w>
hi re</w>
hea ding</w>
he o</w>
hard ware</w>
hack ers</w>
ha te</w>
ha ck</w>
ha bit</w>
h ết.</w>
h uyền</w>
h ome
h ills</w>
h ill</w>
h anging</w>
guaran tee</w>
grad es</w>
gr ounds</w>
giả ,</w>
gia o,</w>
gi o</w>
geo park</w>
gener ating</w>
gen otype</w>
gen ic</w>
g à,</w>
g ating</w>
g ains</w>
frau dul
for um</w>
for get</w>
foo d
fle et</w>
fla vanol</w>
fl esh</w>
fl at</w>
fin ance</w>
fil med</w>
figh ters</w>
fi xed</w>
fet us</w>
favor able</w>
farm er</w>
facil itate</w>
f it
f ellow</w>
f ed</w>
f avo
favo red</w>
extrac orporeal</w>
exten sive</w>
explo ded</w>
explan ation</w>
expl oring</w>
experi ences</w>
exclu sively</w>
exclu sive</w>
exclu ding</w>
excee ding</w>
ex ter
ex tent</w>
ex istence</w>
ex -
ev in</w>
estab lishing</w>
escal ating</w>
es tine</w>
es sions</w>
episo des</w>
enti ties</w>
ent ally</w>
ell or</w>
el legr
ed l</w>
ed es</w>
ecu tive</w>
echo es</w>
ec tions</w>
eKY C</w>
e ums</w>
e di
e a</w>
dưỡ ng,</w>
dã .</w>
dy kes</w>
du o</w>
dri ven</w>
dram as</w>
dr ígu
dr astic</w>
don ation</w>
docu ment
diễ u</w>
diễ n,</w>
disc overing</w>
dis tinc
dis sem
dis ruption</w>
dis per
dis counts</w>
din bur
dialo gue</w>
di ng
develo ps</w>
determin ing</w>
det ection</w>
design ated</w>
descri bes</w>
des truc
dep ends</w>
dead line</w>
dea f</w>
dang ers</w>
d ời</w>
d ối</w>
d ần.</w>
d ạo</w>
d é
d â
d irty</w>
d ges</w>
d ating</w>
cử a
có ,</w>
cur acy</w>
cu ̣</w>
crow d</w>
cross- border</w>
cros sing</w>
critic ism</w>
cri tics</w>
cre d
controver si
contam ination</w>
contain ers</w>
consul ting</w>
conflic t</w>
con v
con tes
con spir
con sensus</w>
complic ate</w>
compl eting</w>
com pe
co ws</w>
clin ic</w>
clim bing</w>
citiz enship</w>
ci ous</w>
ci ans</w>
chuy ện,</w>
chu ộng</w>
chu ́t</w>
chu i</w>
chiế u</w>
chipel ago</w>
check points</w>
chea per</w>
che e</w>
chatbo t</w>
champion ship</w>
challe nging</w>
ch ặng</w>
ch ất,</w>
ch ạ
ch ăng</w>
ch es
ch ann
certain ly</w>
ceremon ies</w>
cau tious</w>
cap it
cab in</w>
ca red</w>
c ực,</w>
c ận,</w>
c ây,</w>
c rit
c it
c abinet</w>
bạ c,</w>
bú n</w>
bé .</w>
buy ers</w>
bu sta</w>
bu l</w>
bot tom</w>
bor ro
bo wl</w>
blu e
bloc king</w>
biế n,</w>
birth mark</w>
birth day</w>
bio logy</w>
bin ding</w>
behavi our</w>
be red</w>
be am</w>
bar a</w>
ba thro
b ộ.</w>
b ế
b ắc.</w>
b át</w>
b siella</w>
b ron
b bed</w>
ay a</w>
aven ue</w>
av u
autom atically</w>
au to</w>
au ,</w>
attribu ted</w>
attemp ting</w>
ath mandu</w>
ate way</w>
at u</w>
at er
asser ted</w>
assaul ted</w>
asp ects</w>
ashi mo
as ts</w>
arr ange</w>
ar at</w>
appro aching</w>
appreci ate</w>
anu atu</w>
antibio tic</w>
anti- dumping</w>
answ ers</w>
ank ui</w>
angu ard</w>
ang o</w>
anc e,</w>
analy sts</w>
an tim
am p
am ia</w>
alum inum</w>
all arat</w>
ali er</w>
al o</w>
al i</w>
al er
ag ent</w>
after math</w>
advant ages</w>
adul t</w>
adren al
adap t</w>
ad oles
ad i</w>
ad dic
achiev ing</w>
ac i
aband oning</w>
a wards</w>
a ha
[' Tại</w>
[' Khi</w>
Z ing</w>
Y ến</w>
X ích</w>
Win ter</w>
Wil den</w>
We Cha
WeCha t,</w>
W S
Vu i</w>
VnEx pres
Virgin ia</w>
Vin school</w>
Vin Smart</w>
Vin Bus</w>
Vilni us</w>
Viet tel</w>
Vi vo</w>
Vene to</w>
Val en
VND 7
VND 30</w>
VN 84
V ấn</w>
V ũ,</w>
V it
V anuatu</w>
V anguard</w>
V EC</w>
Un it</w>
UN WT
U tt
U sers</w>
U TC</w>
U E
UE FA</w>
U 23</w>
Tyum en</w>
Trump ,</w>
Tri ển</w>
Tri eng</w>
Ton ight</w>
To dor
Tha iBev</w>
Th ọ</w>
Ten eri
Te ch</w>
Tay yip</w>
T ấn</w>
T ây,</w>
T ân,</w>
T ái</w>
T anz
T S
Sy stem</w>
Sw iss</w>
Sud an</w>
Stu dios</w>
St olten
Speci fically</w>
Som alia</w>
Sim on</w>
Si x
Sel ena</w>
Sec urities</w>
Sea food</w>
Se ñor
Sa ve</w>
Sa )</w>
S ung</w>
S ony</w>
S ol
S interkla
Rị a</w>
Robo tics</w>
Rob in
Ro skil
Ro s
Ro drígu
Ro ad</w>
Ri ght</w>
Re view</w>
Re por
Re ed</w>
Raj as
R on
R ep
R el
R av
R am
R NA</w>
R 3
R3 95</w>
Quốc ),</w>
Qu ar
Qu ang
Q uyền</w>
Q R
Q H
Pro curacy</w>
Pri v
Pri or</w>
Pr inci
Pr ad
Portu gal</w>
Po p</w>
Po int</w>
Pl ant</w>
Pittsbur gh</w>
Pic tures</w>
Phi-líp- pin</w>
Ph ương,</w>
Ph óng</w>
Pepsi Co</w>
Pe nh</w>
Par ties</w>
Pal estine</w>
P ellegr
P L
P C</w>
P .</w>
Over seas</w>
Os car</w>
Oper ation</w>
Oce an
O ’
O ut
O r</w>
O N
O K</w>
Now adays</w>
Nish ino</w>
Nik kei</w>
Nh ận</w>
Nguy ên.</w>
Ng ãi</w>
Ng hi
Nep al,</w>
Ne el
Nam .',</w>
Na omi</w>
N oo
N ine</w>
N im
N ice</w>
N avi
Muni ch</w>
Mor ano</w>
Monac o</w>
Mo tor
Minnea polis</w>
Min neso
Mid -
Microsof t,</w>
Mel inda</w>
Mc Kin
Mar y
Manti core</w>
M ã</w>
M o</w>
M ir
M ic
M ak
M I
Lu x</w>
Lou is</w>
Lo ve</w>
Lit tle</w>
Lex ing
L ộc</w>
L ệ</w>
L in
L earning</w>
L at
L V</w>
Kyrgyz stan</w>
Kore ans</w>
Ko ca</w>
Kle bsiella</w>
Ki ế
Kh ắc</w>
Kh o</w>
Kh al
Kaz an</w>
Ka un
K ênh</w>
K rong</w>
K on</w>
K iều</w>
K ey
K evin</w>
K avu
K athmandu</w>
K ari
Ju lia</w>
Jona than</w>
Jo se</w>
Jin yintan</w>
Jin ping</w>
Ji ankui</w>
Je remy</w>
Jag ha
Istan bul</w>
I vory</w>
I rel
I M
I I
I AT
Hung ary</w>
Huan an</w>
Hu ấn</w>
Hospit alier</w>
Ho ạt</w>
Him al
Hen ry</w>
Haw king</w>
Hano ian</w>
Hang zhou</w>
H ứa</w>
H ằng,</w>
H ạn</w>
H ome
H om
H i</w>
H ead</w>
H ashimo
H an</w>
H amachi</w>
H ain
Gò n,</w>
Gre ek</w>
Gre at</w>
Gi useppe</w>
Gi e</w>
G ame</w>
G I
Floy d,</w>
Fi eld</w>
Far o
Fam ily</w>
F lip</w>
Ex ecutive</w>
Erdo gan</w>
Equ atorial</w>
ES L</w>
EF L</w>
E ven
E va</w>
E uro</w>
E mp
E ff
E dinbur
E Z</w>
E EZ</w>
E D</w>
Dub ai,</w>
Du ̀</w>
Do ong</w>
Do an</w>
Di ep</w>
Det ective</w>
D òng</w>
D uy
D re
D id</w>
Conduc t</w>
Colom bian</w>
Col onel</w>
Clo stridium</w>
Chro mi
Chi .</w>
Char lize</w>
Cha uvin</w>
Cha t
Ch ứng</w>
Ch ẩn</w>
Ch ăn</w>
Ch àng</w>
Ch ile</w>
Ch alle
Cap e</w>
Cann es</w>
Can Sino</w>
CF CB</w>
C ận</w>
C ấp</w>
C ảm</w>
C ải</w>
C and
C S
Bul keley</w>
Bu run
Blue zone</w>
Bloom berg</w>
Bloom ber
Bio logical</w>
Bio logi
Bifare tti</w>
Ber n
Be an</w>
B ỉ</w>
B ạc</w>
B án</w>
B run
B rent</w>
B ea
B ay
B allarat</w>
B S
B R395</w>
B ,</w>
Ath muq
Ass am</w>
Ar chipelago</w>
Ar ch
Alter n
Al ong</w>
Al mat
Al ger
Ai res</w>
Ac cu
Abi g
Ab u</w>
Aar h
AS F</w>
AP T
AID S.</w>
A sh
A pp
A ches
A N
9, 5</w>
8. 6</w>
8 5%</w>
8 /
8 ""</w>
7 9
7 40</w>
6 00,000</w>
5. 1</w>
5 3.
4. 3</w>
4 G</w>
4 70</w>
4 2,
4 00,000</w>
4 0,
30 s</w>
3. 7</w>
3 8
3 4%</w>
3 30</w>
3 3
28 /
26 /
2019 –
201 1.</w>
200 8,</w>
20 ,
2, 1</w>
2 28</w>
199 0,</w>
17 .
16 ,
15 8</w>
15 3</w>
15 0,000</w>
15 %</w>
14 5</w>
12 :
10 8</w>
10 2</w>
1, 400</w>
1, 4
1 36</w>
1 29</w>
1 15</w>
1 11</w>
1 1,000</w>
0 5</w>
. ,</w>
- 19</w>
) ;</w>
(US AID
( 4,
( 201
' Tôi</w>
' M
"" rất</w>
"" .',</w>
" Giám</w>
" Chúng</w>
" Anh</w>
… .</w>
” .',</w>
” ."</w>
” ']</w>
“ Đó</w>
“ rất</w>
“ họ
“ Việt</w>
“ Việc</w>
“ Trong</w>
“ Ch
​​ vào</w>
ỳ nh,</w>
ữ a.</w>
ứ u</w>
ỗ ng</w>
ỗ i,</w>
ọ ,</w>
ễ n.</w>
ẽ .</w>
ằ n</w>
ắ t.</w>
ấ u,</w>
̣ t</w>
̀ o</w>
ượ ng.</w>
ơ .</w>
độ i.</w>
độ ,</w>
đô -la</w>
đâ u
đo àn.</w>
đo an</w>
đi ền</w>
đ ề.</w>
đ ặn</w>
đ ẳ
đ ắn</w>
đ ông.</w>
đ è</w>
Đ ảo,</w>
Đ án,</w>
ú c
ô .</w>
ò n.</w>
è s</w>
Ú t</w>
  đã</w>
  của</w>
z i
yế u.</w>
y ê
y st
y si
y aw
xi ếc</w>
x úc,</w>
x em.</w>
woo den</w>
witn essed</w>
with draw</w>
wit nesses</w>
win ners</w>
win dows</w>
wholes ale</w>
wel comes</w>
weak ened</w>
we gian</w>
was te
was hed</w>
war ns</w>
war ming</w>
war ded</w>
w hatever</w>
w ers</w>
vọ ng,</w>
và ng.</w>
vol can
visu al</w>
visit or</w>
vice -
vi s</w>
vi ngs</w>
vi e</w>
vi br
vi .</w>
verdic t</w>
vend ors</w>
va ̀o</w>
v ệ.</w>
v ẹn</w>
v ấp</w>
v ăn,</w>
v ùi</w>
v â
v ar
ur i</w>
ur ges</w>
uni or</w>
und ated</w>
un safe</w>
un j
um ents</w>
ul f</w>
u ana</w>
u als</w>
tụ c.</w>
tộ i.</w>
tỏ a,</w>
tí m</w>
twe eted</w>
tw ear</w>
tu s</w>
tu m</w>
trọ ng”</w>
tru sted</w>
trol eum</w>
triệ u.</w>
tribu te</w>
tri age</w>
treat s</w>
trans missions</w>
tran h.</w>
tra ordinary</w>
tra it</w>
tra ditionally</w>
tr ứng,</w>
tr ợ
tr ễ</w>
tr ắc</w>
tr ườ
tr ú,</w>
tr ang
tough er</w>
ton seed</w>
toil et</w>
to à</w>
to ys</w>
to dd
todd ler</w>
time ly</w>
til le</w>
tigh ten</w>
ti vi</w>
ti tles</w>
ti nh.</w>
ti ger</w>
thẳ ng.</w>
thẳ ng,</w>
thấ p
thu ỷ</w>
thre sho
the ft</w>
th ụ
th ở
th ầy</w>
th ần,</w>
th úc,</w>
th ou
th on</w>
th an,</w>
th ,</w>
terror ism</w>
ter rible</w>
ter ing</w>
ter .</w>
ten se</w>
ten ds</w>
ten ance</w>
telli gent</w>
tane ously</w>
tal ked</w>
tadpol e</w>
tab lets</w>
ta i,</w>
t ựa</w>
t ừ
t ứ</w>
t ới
t ết</w>
t ật.</w>
t ải,</w>
t ượng,</w>
t ò</w>
t ên,</w>
t é</w>
t áo</w>
t t</w>
t ments</w>
t ear</w>
t ay.</w>
t ail</w>
số t.</w>
sưở i</w>
sá ch.</w>
sà ng,</w>
swe pt</w>
swa b</w>
sw ear</w>
sust ained</w>
susp ends</w>
sus cep
suscep ti
survi vors</w>
survi val</w>
surve ys</w>
sur passed</w>
supp liers</w>
supp lied</w>
suc ceed</w>
subscri bers</w>
su ing</w>
stu ff</w>
stric ter</w>
str ains</w>
sti cky</w>
stead ily</w>
ste ering</w>
ste amed</w>
ste al</w>
st all</w>
special ist</w>
spec t
spec im
spea kers</w>
sp ite</w>
sp ic
sou th
sol u
soci o</w>
so ba</w>
so ap</w>
smugg ling</w>
sk ill</w>
sim mons</w>
sig ning</w>
sib ilities</w>
si on
si ngers</w>
si gh
shri mp</w>
sho ot</w>
sho es</w>
sho cking</w>
sh r
sh oul
sh e
separ ated</w>
sen ,</w>
sem i
sem an</w>
secre ts</w>
se iz
se d
scre en
scor ching</w>
sci ences</w>
schem e</w>
sc at
scat tered</w>
sali va</w>
sal ty</w>
sal ons</w>
sal ary</w>
sal a</w>
sa o.</w>
s ở,</w>
s ương</w>
s ư,</w>
s ét.</w>
s wit
s me
s lu
s ells</w>
s cru
s can</w>
s anit
s ),</w>
rừ ng,</w>
rộ ng,</w>
rượ u.</w>
rượ u,</w>
run ner</w>
ro ve</w>
ro l</w>
ro ck</w>
ro .</w>
retail er</w>
resum ing</w>
resol ve</w>
reservo ir</w>
res ource</w>
res a</w>
repor ter</w>
remark able</w>
rele asing</w>
rele ases</w>
reg ards</w>
refl ect</w>
recy c
recyc led</w>
recei ves</w>
rec alled</w>
re start</w>
re serves</w>
re productive</w>
re efs</w>
re ci
radi o
rac ist</w>
r ực</w>
r ổ</w>
r ạn</w>
r ưỡi</w>
r ăng,</w>
r á
r àng.</w>
r hin
r ating</w>
r at
r ashes</w>
quali fiers</w>
quali fied</w>
qu ỵ
qu e
py thon</w>
purch ases</w>
pul led</w>
pu t
prov es</w>
prov ed</w>
proto col
promo ted</w>
program ming</w>
pro ximity</w>
pro of</w>
pro cu
pris ons</w>
princip al</w>
prin ci
presti gious</w>
pres ents</w>
premis es</w>
premi um</w>
predic t</w>
precau tion</w>
pre d
pray er</w>
pr int</w>
pr ay</w>
positi vely</w>
pos its</w>
por ted</w>
po ol</w>
po l</w>
po a
pl ing</w>
pl ea
pi -r
phạ t.</w>
phạ m.</w>
phạ m,</w>
phí ,</w>
phá p
physi cian</w>
phu ́t</w>
phosph ine</w>
phi ến</w>
phi a,</w>
ph ần.</w>
ph e</w>
peti tion</w>
person alized</w>
perio don
periodon tal</w>
per simmons</w>
pe z</w>
pe t</w>
pas tor</w>
particip ation</w>
particip ated</w>
part ner
partner ships</w>
par aly
pa tr
p ouring</w>
p oul
poul try</w>
p on
p .”</w>
ox con
over use</w>
over night</w>
out siders</w>
out let</w>
out doors</w>
ous ness</w>
oul ,</w>
organis ation</w>
ord ination</w>
or tly</w>
or row</w>
or g</w>
or ful</w>
oper ator</w>
op s</w>
onym ous</w>
on o</w>
on ment</w>
on e
ol ish</w>
ograph ic</w>
off en
oce ans</w>
occur ring</w>
ob tain</w>
o li
o ke</w>
o ""</w>
nó ng,</w>
này ."""</w>
noti ced</w>
no v
no tor
no ise</w>
ni gh
nhự a.</w>
nhậ m</w>
nhu ộm</w>
nh â
nh o</w>
nh :</w>
ngu illa</w>
ngh ệ,</w>
ngh ênh</w>
ng ”,</w>
ng ừa,</w>
ng ừ
ng ủ.</w>
ng ủ,</w>
ng ỏ</w>
ng ắn.</w>
ng ạch</w>
ng ơi</w>
ng ô</w>
ng áp</w>
ng ành,</w>
ng er
ng ),</w>
nec essi
necessi ties</w>
ne m</w>
n ốt</w>
n ạp</w>
n ét</w>
n omin
n ."""</w>
n ,”</w>
n "",</w>
mỏ i,</w>
motorbi kes</w>
molecu lar</w>
mo tion</w>
mid fiel
mi e</w>
mel on</w>
me tropol
mar ry</w>
mar gin</w>
mang rove</w>
man i
man eu
main tenance</w>
m ở,</w>
m ỉ
m ến</w>
m ất.</w>
m ò</w>
m ét.</w>
m ãnh</w>
m in</w>
m ).</w>
lạ nh,</w>
ly m
ly chee</w>
lu ậ
lou d</w>
long est</w>
loc ks</w>
load ing</w>
lo wered</w>
lo s</w>
lo go</w>
lo g</w>
liveli hoods</w>
liter ature</w>
lis m</w>
life time</w>
li ễ
li ves
li on</w>
li ber
legi timate</w>
legi s
law yers</w>
lan tern</w>
lan e</w>
lacti c</w>
l ử
l ứa</w>
l ột</w>
l ều</w>
l ưỡng</w>
l é
l át</w>
l ec
l ated</w>
l acking</w>
kỷ ,</w>
kể ,</w>
kil o</w>
ki a,</w>
không ?
khu ̉ng</w>
kho ái</w>
kh ống</w>
kh ấu</w>
kh ô,</w>
kh am</w>
kh ai,</w>
keep s</w>
k ìm</w>
k nees</w>
k iện.</w>
k et
ket ball</w>
k ak
k a,</w>
jud ic
j un
j o</w>
j i
iz zo</w>
iz za</w>
it em</w>
it ecture</w>
issu ance</w>
is tics</w>
is e,</w>
ir rit
ir ri
ir a</w>
inv al
introduc ing</w>
intraven ous</w>
intensi fy</w>
inst all
innov ative</w>
initi atives</w>
inform ing</w>
influ enced</w>
inev itable</w>
in undated</w>
in tes
in siders</w>
in ity</w>
in ian</w>
in definitely</w>
in appropriate</w>
improv es</w>
impres sive</w>
imm y</w>
imag ine</w>
il i</w>
if f</w>
icro bi
ic eb
iceb er
i ther</w>
i fic
hủ y.</w>
hợp ),</w>
hộ .</w>
hô n,</w>
hurric an
hurrican es</w>
hi ếu</w>
her bs</w>
hear ts</w>
hea da
han ou
ha y,</w>
ha ven</w>
ha sh
ha ir
h ữ
h ầm</w>
h è,</w>
h ani</w>
gạ o.</w>
gun s</w>
gu ess</w>
grocer y</w>
grad er</w>
gra ves</w>
gra ff
govern ing</w>
govern ance</w>
gol f</w>
go s</w>
giả n,</w>
girl friend</w>
gi áng</w>
gh ét</w>
gh o</w>
gar ding</w>
g õ</w>
g ó
g am</w>
fu n</w>
front line</w>
fro g</w>
fre ight</w>
franch ise</w>
fr agrant</w>
foun ders</w>
form ing</w>
for tunately</w>
follow ers</w>
fil ming</w>
fi x</w>
fi bro
ff le</w>
fe eding</w>
fe ed
feed back</w>
fa thers</w>
f old</w>
f lood</w>
f ault</w>
f ate</w>
f ar
explo it</w>
expl oration</w>
expl aining</w>
exhi bi
excee ded</w>
exc ited</w>
exac er
exacer b
ex traordinary</w>
ex cre
ex changes</w>
evid ent</w>
es sive</w>
er o</w>
er ia</w>
epidemio logy</w>
enz hen</w>
encoun tered</w>
en tion</w>
en rolled</w>
en comp
en ch
ench mark</w>
emplo ying</w>
emp ire</w>
em ical</w>
em atic</w>
em ar
em akers</w>
em a</w>
ell ent</w>
elimin ated</w>
electr onics</w>
edit orial</w>
econom ics</w>
echo location</w>
ec ca</w>
e up</w>
e on</w>
e Bay</w>
dướ i.</w>
du bbed</w>
dra wing</w>
downp our</w>
down loads</w>
dormit ory</w>
docu mented</w>
do se</w>
divi sion</w>
distinc t</w>
dist an</w>
dismis sal</w>
disinfec ting</w>
discus sion</w>
disas ters</w>
dis tur
dis order</w>
dis infect</w>
dis count</w>
dis closed</w>
destro y</w>
deser ted</w>
des al
desal ination</w>
depic ting</w>
depar ted</w>
deli ber
deleg ation</w>
def ence</w>
deep ly</w>
dec lining</w>
dec iding</w>
de posits</w>
de pl
de ngue</w>
de fe
de ed</w>
d ồi</w>
d ầu,</w>
d ại</w>
d ương.</w>
d ũng</w>
d iệ
cầ n.</w>
cả m,</w>
cơ ,</w>
custo m</w>
cu isine</w>
cros sed</w>
critici zing</w>
crit eria</w>
cre am</w>
cr acked</w>
counter fe
coun cil</w>
cor ri
convic ted</w>
controversi al</w>
consum ing</w>
consu me</w>
conspir acy</w>
cong estion</w>
con ut</w>
con ferences</w>
con di
compu l
compe ting</w>
commit ments</w>
comfor table</w>
collabor ating</w>
coc cus</w>
co- founder</w>
co py
co conut</w>
cli ent</w>
classi fied</w>
cl ari
ckro aches</w>
civili an</w>
ci um</w>
chó ng,</w>
chuyể n,</w>
chu ông</w>
chann els</w>
champi ons</w>
ch ủ.</w>
ch ồ
ch ảy,</w>
ch ước</w>
ch ét</w>
ch ef</w>
ch ased</w>
ch air</w>
cem etery</w>
celebr ation</w>
cel lular</w>
cee dings</w>
car nival</w>
car maker</w>
canc ers</w>
cal o</w>
cal cium</w>
caf es</w>
ca us
ca regi
c ross</w>
c over
c ents</w>
c .',</w>
bả y.</w>
bả ng)</w>
bò .</w>
bò ,</w>
bà .</w>
bur g</w>
bu ồn,</w>
bu reau</w>
brief ing</w>
bri ef</w>
botulin um</w>
bor row</w>
bor ing</w>
boo sting</w>
bo xes</w>
blue chips</w>
ble ed</w>
biế n.</w>
bio -
be half</w>
bathro om</w>
bat tery</w>
bar ,</w>
back ground</w>
b ẩn</w>
b ầy</w>
b ìa</w>
b ì</w>
b reas
b ly</w>
b ite</w>
b in</w>
b esides</w>
b enchmark</w>
b el
b age</w>
ay s,</w>
autonom y</w>
autom ation</w>
autom atic</w>
atten de
ation ,</w>
ate x</w>
as set</w>
as ide</w>
arri ves</w>
arm ing</w>
argu ing</w>
ar my</w>
ar agu
aqu at</w>
appreci ation</w>
appoin tment</w>
any more</w>
any e</w>
antim icrobi
anno ying</w>
ang es</w>
and y</w>
anc er</w>
amoun ted</w>
am us
am s,</w>
al on
al ize</w>
al arm</w>
aim ing</w>
ail ey</w>
agre ements</w>
afford able</w>
advi se</w>
achiev ements</w>
accid entally</w>
acc us
ac tors</w>
abor tion</w>
a tr
a phy
[' Không</w>
Zealand .</w>
Z oom</w>
Yo da</w>
Y ang
X ê</w>
X ây</w>
X ác</w>
X o</w>
Wool f</w>
Wh ether</w>
We ek</w>
Washing ton.</w>
Washing ton,</w>
War saw</w>
Wal ter</w>
WT I</w>
WHO ,</w>
W ol
W a
Vo ice</w>
Vis itors</w>
Vi ết</w>
Ven us</w>
VND 3</w>
VN84 App</w>
VF F</w>
V ắc</w>
V ành</w>
V smart</w>
V eter
Ukra inian</w>
UNCL OS
U t</w>
U pp
U R
U B
UB ND</w>
U -
Ty rol</w>
Ty phoon</w>
Trin ity</w>
Tre o</w>
Tre at
Tr ưng</w>
Tr ình</w>
Tor res</w>
Thi ếu</w>
Th ử</w>
Th ăng</w>
Th úy</w>
Th âm</w>
Teneri fe</w>
Tel e
Techno logies</w>
Te resa</w>
Tatar stan</w>
Tai pei</w>
TP. HCM,</w>
TC +
T á
T ou
T mall</w>
T ax
T ask</w>
T am
T ak
T T
T R
T .</w>
Sé c</w>
Syn drome</w>
Surin ame</w>
Su per
Str as
Stockhol m</w>
Spec ial</w>
Sp ace
So ng
Sinterkla as</w>
Sil va</w>
Si hanou
Sh ortly</w>
Sh ep
Sh enzhen</w>
Sed ere</w>
Scienti fic</w>
Scarbor ough</w>
Sar ah</w>
Sahar an</w>
Sa x
SE Z</w>
SA H</w>
S ẽ</w>
S íp</w>
S uy</w>
S port
S evere</w>
S avo
S M</w>
S H
Rus si
Roskil de</w>
Rom an</w>
Roeb ling</w>
Rodrígu ez</w>
Robin son</w>
Ri edl</w>
Resid ents</w>
Res cu
Represent ative</w>
Re garding</w>
RT- PC
R evolution</w>
R an
R A
Quang nam</w>
Pro ceedings</w>
Pri ze</w>
Pla za</w>
Pix ar</w>
Phá p
Pho to</w>
Ph ổi</w>
Ph ật</w>
Ph ysi
Pav lo
Paralymp ic</w>
Par liam
Par agu
Pakist an.</w>
Pakist an,</w>
PRE CE
PRECE D
PRECED E</w>
P ope</w>
P las
P ay
P )</w>
Opp o</w>
Onco logy</w>
Offic ial</w>
O ri
O L
O K
Nor wegian</w>
No el</w>
Niger ia,</w>
Nic aragu
Ni ght</w>
Ngu ồn</w>
Ngu oi</w>
Ng ũ</w>
Ng ài</w>
Ng uy</w>
New s
Nep al.</w>
Neigh b
NS W</w>
NG O</w>
N ền</w>
N ằm</w>
N úi</w>
N ob
N ina</w>
N 95</w>
Mumb ai</w>
Mosk va</w>
Mo vie</w>
Mo ore</w>
Min sk</w>
Mid- Au
Mid-Au tumn</w>
Matthe w</w>
Mar ine</w>
Mar in
Maj or</w>
M ông</w>
M óng</w>
M oi</w>
M iller</w>
M en</w>
M ain
M -
Lạ t,</w>
Lu ka</w>
Li thu
Li fe</w>
Li eu</w>
Lea ders</w>
Lancelo t</w>
Lab or
L ợi</w>
L ịch</w>
L ượng</w>
L ưu</w>
L op
L in</w>
L avenue</w>
L alla</w>
L G</w>
Kỳ .',</w>
Kyo to</w>
Kyo do</w>
Kur distan</w>
Kr ai</w>
Ki ến</w>
Ki nh.</w>
Kh ủng</w>
Kel ly</w>
Ke ys</w>
Ke q
Kavu gho</w>
Kaun as</w>
K ỷ</w>
K y</w>
K ra
K or
K night</w>
K er
K ent</w>
K en</w>
K anye</w>
K ,</w>
Ji ang
Jas on</w>
Jagha b</w>
JP Y
J un
J ud
J obs</w>
J ake</w>
Initi ally</w>
Indones ia.</w>
Indi ans</w>
IAT A</w>
I mp
I N
I .</w>
Hydro xychloroquine</w>
Hu ang
Hond uras</w>
Holly wood</w>
Hol ding</w>
Himal ay
Haw ai
Hashimo to</w>
Harv ar
Hain an</w>
HIV ,</w>
H ô
H ur
H ist
H ills</w>
H ealth
H au</w>
H P
Guy ana</w>
Guatem ala</w>
Guang zhou</w>
Gu ar
Gu am</w>
Gre aves</w>
Gr and
Gr ab
Govern or</w>
Goo d
Gir ls</w>
Gi ữa</w>
Gi ven</w>
GM T</w>
G roup,</w>
G ateway</w>
G PS</w>
G O
Fu ku
For b
Fin land</w>
Fi elds</w>
Faro e</w>
F ree</w>
F oxcon
F lights</w>
F ish</w>
Even tually</w>
Ethiop ian</w>
EK 3
E ye</w>
Dun ed
Dha bi</w>
Da c</w>
D ou
D in
D i</w>
D P</w>
D C
D .</w>
Cu p
Cu a</w>
Croati a</w>
Cooper smith</w>
Con n
Comp an
Comm and</w>
Co. op
Co ngo
Co ckroaches</w>
Co c</w>
Chromi um</w>
Chil d</w>
Ch emical</w>
Ch anc
Ch al
Carri e</w>
Car uana</w>
Canad a.</w>
CAA V)</w>
C ực</w>
C ứu</w>
C ố</w>
C ập,</w>
C ư</w>
C lu
C at
C af
Burun di</w>
Bur hani</w>
Bu z
Bru ce</w>
Brookly n</w>
Bor n</w>
Bol son
Bo x</w>
Bas tille</w>
Bar bara</w>
BC G</w>
B ỉ,</w>
B ánh</w>
B re
B o</w>
B lood</w>
B each</w>
B an
B M
Athmuq am</w>
Arch itecture</w>
Ar med</w>
Ap pl
Anh )</w>
Al len</w>
Al l
Al i</w>
Aches on</w>
Accu Weather</w>
Ac tion</w>
Ac eh</w>
Ac c
Abig ail</w>
AM A</w>
A sa
A re
A nguilla</w>
A gain</w>
A ),</w>
9 5%</w>
9 1,</w>
8. 5</w>
8, 5
8 :00</w>
8 2,
8 0.
8 )</w>
7 -
6. 8</w>
6. 3</w>
6. 1</w>
6, 5</w>
6 :30</w>
6 :
5. 7</w>
5. 6</w>
5. 3</w>
5, 5</w>
5 6
5 1%</w>
4. 7</w>
4. 6</w>
4 9
4 7.
4 0,000</w>
3. 4</w>
3, 500</w>
3 :</w>
3 :
3 )</w>
3 %,</w>
25 5</w>
25 2</w>
25 .000</w>
24 ,
200 9,</w>
200 5,</w>
200 0,</w>
2. 4</w>
2. 0
2, 7
2, 6</w>
2, 600</w>
2, 500</w>
2, 2</w>
198 7</w>
198 6</w>
198 5</w>
198 4</w>
198 1</w>
198 0s</w>
19 /
19 ,</w>
19 %</w>
18 /
18 %</w>
17 3</w>
16 .000</w>
16 ,</w>
15 0.000</w>
14 6</w>
14 ,</w>
14 ,000</w>
10 0%</w>
1. 9</w>
1. 3
1, 600</w>
1, 6
1, 4</w>
1, 300</w>
1, 200</w>
1, 1</w>
1 70</w>
1 12</w>
1 1-
1 ""</w>
00 .</w>
. com</w>
( với</w>
( của</w>
( Hoàng</w>
( CAAV)</w>
( A
( 3
( ""
' Đây</w>
' m</w>
' Sau</w>
' Người</w>
' Khi</w>
' ""
% )</w>
"" Đây</w>
"" làm</w>
" Tại</w>
" Tôi</w>
" Công</w>
" Bác</w>
” .']</w>
“ chúng</w>
“ Với</w>
“ Vào</w>
“ Mẹ</w>
“ Không</w>
“ Cô</w>
​​ trúc</w>
​​ nghị</w>
ὑ γ
ὑγ ι
ồ i.</w>
ố p</w>
ố n,</w>
ị t</w>
ề u
ẻ o</w>
ẫ m</w>
ấ t
ε ι
̣ p</w>
̉ n</w>
ư ́c</w>
ơ ̉</w>
ơ ́i</w>
đó i,</w>
đó .”</w>
đây .”</w>
đ ủ,</w>
đ ợ
đ ờ
đ ốm</w>
đ ọc,</w>
đ ằng</w>
đ ả
đ ính</w>
Đị nh,</w>
Đo òng</w>
Điể n.</w>
Đi ền</w>
Đi ền,</w>
Đ ứng</w>
Đ ảo.</w>
Đ án</w>
ú t.</w>
ô n.</w>
í ch.</w>
é bis
ébis son</w>
è o,</w>
á ng,</w>
ày .</w>
à o.</w>
à m,</w>
Á p</w>
  ở</w>
  vào</w>
  trong</w>
  các</w>
zu ki</w>
z u</w>
z ,</w>
yp rus</w>
yo ng
yar sk</w>
y ev
y early</w>
y ear
y ango</w>
y al
xí u</w>
xá ,</w>
xu ống,</w>
x ích</w>
x át</w>
x áo</w>
x a.</w>
x a,</w>
wro ng
wor ths</w>
won der
wonder ful</w>
wom b</w>
wh eat</w>
weak ening</w>
water way</w>
wal ked</w>
w ounded</w>
w ire</w>
w ells</w>
w aking</w>
vọ ng.</w>
và o,</w>
vom iting</w>
volunt ary</w>
vol ati
vo ting</w>
việ c
viế t:</w>
vir tually</w>
vil le,</w>
vi ê
vi sible</w>
vers a</w>
ver pool</w>
ver ification</w>
ver ,</w>
ven ding</w>
valu able</w>
v ữa</w>
v ữ
v ỡ
v ở</w>
v ất</w>
v ả</w>
v óc</w>
v ascular</w>
v agina</w>
v .v
ut to</w>
us u
usu f</w>
ur red</w>
ur ge</w>
up grad
upgrad ing</w>
uni versal</w>
under stood</w>
und ant</w>
un rest</w>
un paid</w>
un named</w>
un like</w>
un ion</w>
un il
un identified</w>
ul u</w>
ul timately</w>
ul ations</w>
ud ette</w>
ud d
uc ker
ucker berg</w>
u ̉ng</w>
u sive</w>
u dia</w>
u .”</w>
u .']</w>
tộ c.</w>
tù .</w>
tù ,</w>
tw enty</w>
tuy ế
tu ầ
trọ ng""</w>
truy ền.</w>
truc ks</w>
tro polis</w>
triệ u,</w>
tri ple</w>
tri ght</w>
trans fusion</w>
trans action</w>
traffic ked</w>
trad ed</w>
trac ed</w>
tra p</w>
tra its</w>
tra ditions</w>
tr ội</w>
tr ố
tr ình.</w>
tr inh</w>
tr ay</w>
ton ne</w>
tom orrow</w>
tom bs</w>
to án.</w>
to y</w>
tiế t,</w>
tis sues</w>
tine z</w>
tin al</w>
ti ên
ti ca</w>
thă m.</w>
thô n.</w>
thé l
thél emy</w>
thu ế.</w>
thu ̀ng</w>
thu ng</w>
thro wing</w>
thresho ld</w>
threat ens</w>
threat en</w>
thre ats</w>
tho ảng</w>
thir ds</w>
thi ng
ther ine</w>
them ati
the tic</w>
tha o.</w>
th ật,</w>
th ận.</w>
th ẩ
th uy
th ec
th ay,</w>
th an.</w>
territ orial</w>
ter ies</w>
ten ding</w>
telec om</w>
tel e
te ,</w>
tar iff</w>
tal ent</w>
t ”.</w>
t ịch
t ệ.</w>
t ệ,</w>
t ắ
t ấn.</w>
t ấ
t ải.</w>
t ă
t ình
t át</w>
t z</w>
t ting
t ti
t s,</w>
t at
t apped</w>
t ank</w>
t an
t ),</w>
swimm ing</w>
suspic ious</w>
suscepti ble</w>
surge on</w>
sur faces</w>
suppl ements</w>
super vi
sup po
suppo se
suppose dly</w>
sup er</w>
sun screen</w>
sub ur
sub ishi</w>
su ng,</w>
su ed</w>
stri ke</w>
stre am
str uments</w>
stoc kings</w>
sti mul
ste trics</w>
star s</w>
star ring</w>
st y
st ero
st ealing</w>
st am
st ake
stake holders</w>
st aff
st ab
stab il
spok en</w>
spir it
spid ers</w>
spic y</w>
specul ation</w>
speci fied</w>
spec tive</w>
spec ially</w>
sou p</w>
son age</w>
sol o</w>
so so
so aring</w>
sn acks</w>
sm all
sl apped</w>
sk ir
sk id
similar ities</w>
si z</w>
si ves</w>
si mu
si ck
shu tting</w>
sho ppers</w>
sho kuiku</w>
shir ts</w>
shi fts</w>
shi fted</w>
sh ou
sh in
sens ors</w>
sen e</w>
sel ect</w>
seiz ures</w>
seg ment</w>
se wage</w>
scre aming</w>
scr at
sc ans</w>
sc anner</w>
sau :</w>
sar na
sar com
sarcom as</w>
sanit ation</w>
sand wi
s ữa,</w>
s ạn.</w>
s é
s tin
s s
s pl
s nee
s lowing</w>
s its</w>
s essions</w>
s ara</w>
s and</w>
s )</w>
run ways</w>
run n
runn isa</w>
rum or</w>
rub ber</w>
ru ̉i</w>
ru pi
rupi ah</w>
ron es
rob ust</w>
ro man
roman tic</w>
ro i</w>
ro busta</w>
ro ad
ri er</w>
ri ding</w>
ri da
reveal ing</w>
reti red</w>
ret tin</w>
resur gence</w>
resu mption</w>
respon sibilities</w>
resp ir
requi rement</w>
ren al</w>
remo tely</w>
rem lin</w>
reli ant</w>
reli ance</w>
rela xed</w>
rel lan
rel ess</w>
regi me</w>
recru it</w>
recor dings</w>
real izing</w>
re viewed</w>
re tro
re j
re it
re infor
re ha
reha bil
re act</w>
ran dom</w>
rac ism</w>
ra ided</w>
r ó
r ét.</w>
r à</w>
r i</w>
r ash</w>
r ari</w>
r aging</w>
quy ến</w>
quar ter
quanti ties</w>
qu át</w>
pylob acter
pur sue</w>
pur i
pul mon
pulmon ary</w>
pu ll</w>
pu ff
protocol s</w>
promp ted</w>
promp t</w>
promo tional</w>
pro py
pro pag
pro actively</w>
presid ency</w>
pre- tax</w>
pre y</w>
pre teens</w>
pre ferred</w>
pre feren
preferen tial</w>
pre f
pr inc
princ ess</w>
pow der</w>
post- Covid-19</w>
popul ated</w>
poly propy
policem an</w>
pleas ant</w>
plea ded</w>
plas tics</w>
plan tation</w>
pl um
pl enty</w>
pl ease</w>
pione er</w>
pilgri ms</w>
pi ed</w>
pho sa</w>
ph un</w>
ph ere</w>
ph ases</w>
perman ently</w>
perf ume</w>
percei ve</w>
per t</w>
per su
penal ty</w>
peanu ts</w>
pe o
pe nh
pat terns</w>
pas te</w>
paraly zed</w>
par ity</w>
par aquat</w>
pand emics</w>
pand em
pag e
pa trol</w>
pa inf
painf ul</w>
p p</w>
p ound</w>
p lots</w>
p it
p inephr
p ill</w>
p ests</w>
ow ning</w>
ow ed</w>
over weight</w>
over -
out bound</w>
ous em
oun ding</w>
oun ced</w>
ou tright</w>
ou ter</w>
ore pinephr
op y</w>
op posite</w>
op posed</w>
oo dle</w>
on lin
on is
on i
on e,</w>
oli tion</w>
ograph y</w>
off ensive</w>
occup ations</w>
occas ions</w>
obli gation</w>
o ch
nấ m,</w>
nó ng.</w>
nó i
này .',</w>
nutri tious</w>
nu t</w>
now adays</w>
nomin ees</w>
no red</w>
nit ure</w>
ni trogen</w>
ni nh,</w>
như :</w>
nhiệ m.</w>
nh ức</w>
nh ọn</w>
nh ẹ
nh ó
nh ân
nh àng</w>
nh om
nh .']</w>
nghi ền</w>
ngh ị,</w>
ngh ệ
ngh ề,</w>
ngh ẽ
ng ữ.</w>
ng ột</w>
ng  </w>
ng le</w>
ng ai</w>
neu tral</w>
negl ect</w>
necess arily</w>
nec ro
nam .</w>
n ợ.</w>
n ở.</w>
n ề.</w>
n ắng,</w>
n ảy</w>
n át</w>
n k</w>
n iệ
n ic
n air</w>
n ""."</w>
mỉ m</w>
mắ t.</w>
mũ i,</w>
mì n</w>
my co
musi cians</w>
mus h
mus eums</w>
mu ̀i</w>
mo de</w>
mist ake</w>
mis sed</w>
minis ters</w>
min erals</w>
migr ant</w>
midfiel der</w>
mid st</w>
mi xed</w>
mi try</w>
metropol ises</w>
met eorological</w>
met eoro
mer ge</w>
mem e</w>
medic ally</w>
medi ate</w>
maz ut</w>
mater nal</w>
mat s</w>
mas sa
maneu ver</w>
m ”,</w>
m ụ</w>
m ộ.</w>
m ổ</w>
m ạ</w>
m ưa.</w>
m ơ,</w>
m í</w>
m èo.</w>
m âu</w>
m our</w>
m ines</w>
m at</w>
m am
m ad
m acad
macad amia</w>
m .']</w>
lụ c)</w>
lợ i.</w>
lú c,</w>
lí u</w>
lí t,</w>
lu ồng</w>
lu ận,</w>
loroqu ine</w>
lor ia</w>
lo ạn.</w>
lo ại.</w>
lo ver</w>
lo pin
lo pe</w>
lo gn
liệ t,</w>
liễ u</w>
lis on</w>
lis ion</w>
ling s
lin ,</w>
limit ations</w>
li via</w>
li en</w>
lev å
less on</w>
legisl ative</w>
legis lation</w>
lear ners</w>
le y,</w>
le et</w>
laun ching</w>
las ts</w>
land mark</w>
la an
laan ba
l ữ</w>
l ộ.</w>
l ộ
l ắc</w>
l ơ</w>
l ũ
l âu,</w>
l ánh</w>
l un
l ene</w>
l ement</w>
kịch .</w>
ké m,</w>
ku t
ko low
king dom</w>
ki pe
ki nh,</w>
kho ác</w>
kh i,</w>
ker age</w>
keep er</w>
ke y
kal sky</w>
k ế,</w>
k ê,</w>
k on</w>
k ol</w>
k in</w>
k im
kim chi</w>
k ick</w>
k ero
kero sene</w>
jø r
journal ist</w>
jo ke</w>
jack et</w>
j in</w>
j et</w>
j ar</w>
j anit
iz am
iti s</w>
it utto</w>
it subishi</w>
it ating</w>
it ,</w>
ist ently</w>
ist an,</w>
is la
irri gation</w>
ir o</w>
ir am</w>
ion ally</w>
invent ory</w>
interpre ter</w>
inter rup
inten tion</w>
integr ate</w>
insul a</w>
inspir ation</w>
insp ect</w>
inno cent</w>
inh er
influ ential</w>
inflam matory</w>
ine ering</w>
indic ates</w>
independ ence</w>
in tr
in toxic
in struments</w>
in ski</w>
in patients</w>
in er
in coming</w>
in ch</w>
in ating</w>
in ate</w>
in a,</w>
impor ting</w>
immun ology</w>
immigr ant</w>
ill o</w>
ig nored</w>
iceber gs</w>
i. e.</w>
i runnisa</w>
i ke</w>
i g</w>
i ble</w>
i ).</w>
i "",</w>
họ ."</w>
hor se</w>
homo sexual</w>
ho à</w>
ho pefully</w>
high lighted</w>
hi at
heavi est</w>
heat wave</w>
hear ings</w>
har t</w>
har ash
happ iness</w>
hand over</w>
hab its</w>
ha ze</w>
ha y.</w>
ha ul</w>
ha ,</w>
h ở</w>
h ổng</w>
h ệt</w>
h ằng</w>
h ắt</w>
h ầu,</w>
h ước</w>
h ương.</w>
h ét</w>
h éc</w>
h è.</w>
h ousem
h nn</w>
gy ms</w>
gro ws</w>
gre ement</w>
grand children</w>
gradu ated</w>
gr am
gr ab
gni tive</w>
glo be</w>
gi ữ,</w>
gi à.</w>
gi en</w>
gi e</w>
gi an
gene tics</w>
gen .</w>
gas tro
gar d
g ắt</w>
g ái.</w>
g u</w>
g es
g ers</w>
g ator</w>
g are
gare t
g aining</w>
fur niture</w>
func tional</w>
fro gs</w>
fre ed
freed oms</w>
fr ame</w>
fore cas
for tune</w>
for mula</w>
for bidden</w>
food borne</w>
foo twear</w>
fol dable</w>
fo ster</w>
flag ged</w>
fl ex
fl ash</w>
fl ames</w>
fit ness</w>
fire fighters</w>
fic ial</w>
fi ghter</w>
fi at</w>
fer tility</w>
fav our
fa ith</w>
f umes</w>
f u</w>
f o</w>
f ile</w>
f eas
f ame</w>
ez awa</w>
ey eli
eyeli ds</w>
ey a</w>
expres sion</w>
experim ents</w>
expec tancy</w>
exemp t</w>
exc eption</w>
exc ellent</w>
ex pe
every body</w>
even th</w>
evalu ating</w>
evalu ated</w>
evacu ees</w>
ess alon
essalon ik
es sible</w>
er to</w>
er n
er ial</w>
er adic
episo de</w>
enterpris e</w>
enh ancing</w>
engine ered</w>
end ure</w>
en orm
en ko</w>
en ic</w>
en able</w>
en ab
employ er</w>
emis phere</w>
emb race</w>
emb r
emb ers</w>
em an</w>
elec tions</w>
el ess</w>
el and</w>
el .</w>
eff rey</w>
edi ting</w>
ear marked</w>
ea ,</w>
e i</w>
e els</w>
e el</w>
e c</w>
e Commerce</w>
e )</w>
dụ :</w>
dã ,</w>
dump ed</w>
drug stores</w>
dru nk</w>
dro opy</w>
dri ed</w>
dre ssing</w>
dram atically</w>
downp ours</w>
down load</w>
doub t</w>
domin ant</w>
domin al</w>
do ,</w>
dividu als</w>
diversi fy</w>
disinfec tant</w>
dis orders</w>
dis information</w>
dis ability</w>
din z</w>
diagno stic</w>
di verse</w>
di ver
di c</w>
devi sed</w>
devas tation</w>
determin ation</w>
det ail</w>
desig ns</w>
des ire</w>
depar ting</w>
dep lo
den sity</w>
den ies</w>
demonstr ations</w>
democr acy</w>
dem olition</w>
deli cious</w>
dec lines</w>
de- S
de-S illing
de- France</w>
de ported</w>
de part</w>
de grad
de dic
d ỗ</w>
d ốc</w>
d ép</w>
d án</w>
d ze</w>
d w
d or</w>
d il
d ar</w>
d ad</w>
cơ -
cơ- va</w>
cú m.</w>
cyber security</w>
custo dy</w>
cultiv ation</w>
cu ́ng</w>
cu mul
cu bic</w>
cu a</w>
cros sings</w>
cr ying</w>
cr ack
counterfe it</w>
coun ty</w>
coun ter</w>
cot ton</w>
continu ously</w>
contes tants</w>
contain ment</w>
consci ousness</w>
cons ists</w>
cons istently</w>
cong rat
con version</w>
con stitu
con serv
compul sory</w>
compl ained</w>
comp iled</w>
com mu
col orful</w>
col lision</w>
co ff
co ca
coca ine</w>
clea rer</w>
clas h</w>
clari fied</w>
cl ar
cir cus</w>
ci garet
chặ n,</w>
chuyể n.</w>
chur ches</w>
chu ng.</w>
cho áng</w>
chloroqu ine,</w>
chiế c,</w>
child hood</w>
chi ến,</w>
chem is
character istics</w>
ch ửi</w>
ch ỗ,</w>
ch ọc</w>
ch ỉ,</w>
ch ậ
ch ưa.</w>
ch ùm</w>
ch ích</w>
ch ênh</w>
ch è</w>
ch ân.</w>
ch y</w>
ch ro
ch el
ch au
certific ation</w>
cen tim
ce iling</w>
cau tion</w>
caregi vers</w>
car bo
cap abilities</w>
cann abin
cal p</w>
cal end
ca ve</w>
ca thedral</w>
c- môn</w>
c ỗ</w>
c ảo</w>
c ương</w>
c ư.</w>
c óc</w>
c â
c u</w>
c tic</w>
c ous
c learing</w>
c attle</w>
c ables</w>
bả ng.</w>
bé n</w>
bé ,</w>
bu ̣ng</w>
bu ck
broad er</w>
bro kerage</w>
bri de</w>
breas t
bot tle</w>
boar ded</w>
bo ts</w>
bl ank
blank et</w>
bl ack
bic ycle</w>
beli efs</w>
be longed</w>
be ings</w>
be at
beat en</w>
be aring</w>
bat i</w>
bar red</w>
bank rupt</w>
ba g</w>
b ổng</w>
b ỏ,</w>
b ấy</w>
b úp</w>
b è.</w>
b ru
b rains</w>
b ou
b one</w>
b lea
b laze</w>
b ear</w>
b ati
b ang,</w>
b acks</w>
ay kalsky</w>
avail ability</w>
av ro
autom aker</w>
ati tude</w>
at ya</w>
associ ate</w>
ass essed</w>
ash ore</w>
as tro
as t
as sured</w>
as ep
as ek</w>
arti cles</w>
arrang ed</w>
ari ans</w>
arg e</w>
are z</w>
are dness</w>
ar y,</w>
ar ts</w>
ar ch</w>
aqu atic</w>
appe als</w>
apologi ze</w>
apar tments</w>
ap s</w>
ap ak
ann e</w>
ann a</w>
and re</w>
and a.</w>
amus ement</w>
ami ul</w>
ama phosa</w>
am ong
am i</w>
am .</w>
altern atives</w>
aller gies</w>
ali tion</w>
ali e</w>
al together</w>
al pha</w>
al located</w>
al liance</w>
al ism</w>
al eya</w>
al ad
alad dinz</w>
aj ir
air plane</w>
ain ts</w>
ail y
ag as
aero sol</w>
advi sing</w>
advi ser</w>
adver se</w>
advan ces</w>
adrenal ine</w>
ad venture</w>
ad just</w>
ad j
ad el</w>
activi sts</w>
activ ate</w>
achiev ement</w>
acc using</w>
acc essible</w>
absor b</w>
ab solu
ab normal</w>
ab dominal</w>
ab aykalsky</w>
a than</w>
a b</w>
a :</w>
a .']</w>
a .',</w>
[' Theo</w>
Z uckerberg</w>
Z u
Z ik
Z hi
Z abaykalsky</w>
Yoshi mi
Yoshi hide</w>
Yem en</w>
Y ên,</w>
Y usuf</w>
Y as
Y ang</w>
Xi ao
X ô</w>
X PS</w>
Wool worths</w>
Willi ams</w>
Wi kipe
Whit ty</w>
Wel ling
Web MD</w>
Wat son</w>
War ning</w>
Wal t</w>
Wal es,</w>
WT A</w>
WS J</w>
W on
W estra</w>
W W
W EF</w>
W B</w>
W ,</w>
Vu a</w>
Vo gue</w>
Vinc om</w>
Vin atex</w>
Vin a</w>
Vietj et,</w>
Vic tory</w>
Vi êng</w>
Vi vi</w>
Vi ru
Vi nhom
Vi en</w>
Vi e
Ver on
Venezuel a,</w>
Ven ice</w>
Vati can</w>
Val itutto</w>
VN AT</w>
VFS- 410</w>
VA S
V à,</w>
V ong</w>
V el
V as
V TC
V H
Upp sala</w>
Uni versities</w>
Ul levå
Ukra ine,</w>
USD /
UR L</w>
UNWT O</w>
UN AIDS</w>
U yen</w>
U m
U laanba
Tw enty</w>
Tun calp</w>
Tu m</w>
Tu berculosis</w>
Tri b
Treat ment</w>
Tre y</w>
Tr ò</w>
Tr ao</w>
Toyo ta,</w>
Tor onto</w>
Todor vo</w>
To ba</w>
TikTo k.</w>
Ti êm</w>
Thi ền</w>
Tha p</w>
Th ủy,</w>
Th ậm</w>
Th ảo,</w>
Th ạnh,</w>
Th áp</w>
Th ám</w>
Th us</w>
Th re
Th iện</w>
Th essalonik
Tes ting</w>
Tem asek</w>
Tech In
Te en</w>
Tbilis i</w>
Tanz ania</w>
Tajik istan</w>
TN G</w>
TH C</w>
T ầm</w>
T ây.</w>
T sarna
T ree</w>
T ony</w>
T id
T est</w>
T ess
T e</w>
T V,</w>
T )</w>
Syri a,</w>
Sw amin
Sur vi
Sur rey</w>
Su zuki</w>
Str ate
Stolten berg</w>
Ste yer</w>
Stand ard</w>
St at
So o</w>
So kolow
So kol</w>
Sn ap
Sim il
Si nh.</w>
Sho al</w>
Shi you</w>
Shep pard</w>
Sh eb
Sh ar
Sh a</w>
Señor a</w>
Sey mour</w>
Scot land,</w>
Sch eng
Saig on
S top</w>
S r.</w>
S put
S on,</w>
S ir</w>
S even</w>
S atya</w>
S ashimi</w>
S A</w>
Rẫ y,</w>
Russi ans</w>
Ru ồi</w>
Ru hnn</w>
Ros ario</w>
Romag na</w>
Rom an
Ro se</w>
Ro sa</w>
Ri ver
Reuter s,</w>
Ret ail</w>
Res ul
Res er
Rec ep</w>
Real time</w>
RO CE
ROCE ED</w>
R ạng</w>
R ang</w>
R amaphosa</w>
R adi
R S
Quốc )</w>
Qu ỳnh,</w>
Qu al
QR 9
Pom bar</w>
Po z
Pho sph
Philipp e</w>
Philadel phia,</w>
Ph úc.</w>
Ph ò
Per u</w>
Pe tr
Parliam ent</w>
Par is.</w>
Pak se</w>
Pac ific
Pa trick</w>
PP E</w>
P yong
P ont</w>
P him</w>
P ed
P ROCEED</w>
P RC</w>
P F
Over all</w>
Or ju
Or ange</w>
On yango</w>
Oklahom a</w>
OK Cup
O z
O ut</w>
O ng</w>
O liver</w>
O ff
O ak
Nu oc</w>
Nu estra</w>
Nor th
Noo yi</w>
No tting
No da</w>
Nicaragu a</w>
Nic ol
Nh ật.</w>
Ngh ĩa</w>
Ng ồi</w>
Ng à</w>
Ng an</w>
Navi gos</w>
Nat alie</w>
Nam -
Nam ""."</w>
Nai vas
Nai ro
Nai kon</w>
Nag as
Nad ella</w>
N orm
N orepinephr
N izam
N ext</w>
N ev
N est
N ai,</w>
My aladdinz</w>
Mus un
Mur illo</w>
Mul ti
Mu ham
Moun tain</w>
Moun t</w>
Mor bi
Mon ey</w>
Mo ham
Mis soso
Mis sion</w>
Minneso ta</w>
Mich el</w>
Mic rones
Mi en</w>
Mer ri
Me tropol
McKin ney</w>
May be</w>
Mas ter
Marin ak
Mar vel</w>
Mar tinez</w>
Mar c</w>
Mand al
Mal i
Main land</w>
Mad agas
Mach ine</w>
Ma i.</w>
Ma harash
Ma ezawa</w>
M ột,</w>
M ắt</w>
M ül
M und
M s</w>
M itsubishi</w>
M illenni
M W
M P
Loc als</w>
Lo ài</w>
Lo w</w>
Lo pez</w>
Lo ng.</w>
Li ê
Li verpool</w>
Li ght</w>
Li ang</w>
Lexing ton</w>
Lea f</w>
Le ish
Le gal</w>
Lank a,</w>
Land scape</w>
Lanc et</w>
L ời</w>
L ôi,</w>
L over</w>
L ore
L oo
L ang
L AC</w>
L .
Krasno yarsk</w>
Kiri bati</w>
Ki k
Ki et</w>
Kha irunnisa</w>
Kh ói</w>
Kh ê</w>
Kh ar
Ken y
Ke ith</w>
Kaz akh</w>
Kari m</w>
Kal in
Kab ul
K remlin</w>
K om
K it
K il
K enny</w>
K AR
Jut land</w>
Ju lie</w>
Jord anian</w>
Jo di</w>
Ji ve</w>
Je tro</w>
Je ju</w>
J ocel
J immy</w>
J es
J effrey</w>
J an</w>
J amiul</w>
J air</w>
J IC
JIC A</w>
J .</w>
Io T</w>
Inter nation
Inst ead</w>
In nov
In dividuals</w>
Im perial</w>
Im migration</w>
IP P
ID ICO</w>
I r
H’ Mong</w>
Hy der
Huang gang</w>
Hu ệ</w>
Hu n</w>
Hon ol
Hol lings
Ho loc
Ho a.</w>
Hi eu</w>
Hep atitis</w>
Hear t
Han eda</w>
Han cock</w>
Ha iti</w>
HIV/ AIDS</w>
H ạm</w>
H ướng</w>
H ó
H àm</w>
H or
H il
H am</w>
H ad
H ab
H 1
H .</w>
Guatem al
Guar dian</w>
Gre ater</w>
Gr ace</w>
God sey</w>
Gi êng</w>
Gi ê
Gi ay</w>
Gi ap</w>
Gh en</w>
Ger r
Geor gian</w>
Gener ally</w>
Gene X
Ge o
Ge isha</w>
Gar ment</w>
Gar den</w>
Gamkreli dze</w>
Gam aleya</w>
G yeong
G ulf</w>
G ru
G ri
G on</w>
G om
G old</w>
G loria</w>
G hos
G at
G ab
G P</w>
G B</w>
G .</w>
Fuku oka</w>
Fu ture</w>
Fre eman</w>
Fran k
Foxcon n</w>
Fore igners</w>
For bidden</w>
Fl em
Fin nair</w>
Fer rari</w>
Fah rettin</w>
FR B
F us
F ru
F ris
F lo
F leet</w>
F if
F au
Ex clu
Ex am
Ever y
Ever hart</w>
Ev ans</w>
Est ab
Es sex</w>
Er n
Eng ineering</w>
El ledge</w>
Edinbur gh</w>
Ecu ador</w>
Econom ics</w>
EU ,</w>
EP I</w>
E ly
Du bo
Dor sey</w>
Dor no
Don na</w>
Doc tor</w>
Di phtheria</w>
Di agno
Der mo
De tro
De an</w>
Dan e</w>
Dam as
D ường</w>
D oodle</w>
D mitry</w>
D har
D enny</w>
D L</w>
Cur rent</w>
Cri tics</w>
Coun try</w>
Con t
Con sul
Compu ter</w>
Communic ation</w>
Colom bia,</w>
Co.op mart</w>
Co penh
Co operation</w>
Cla udia</w>
Cla udette</w>
Cla ire</w>
Chu ẩn</w>
Chu ong</w>
Christ church</w>
Chic ago</w>
Chi ron</w>
Chanc ellor</w>
Chan nel</w>
Cham ber</w>
Challe nge</w>
Ch ú</w>
Ch í
Ch ân</w>
Ch ánh,</w>
Ch ron
Ch loroquine</w>
Ch er
Ch ang
Ch andy</w>
Cas til
Carol ina</w>
Car los</w>
Cand el
Cam pylobacter</w>
Cam ero
Californi a.</w>
CRISP R</w>
CB N</w>
CA S</w>
C ốc</w>
C ỏ</w>
C ập</w>
C ảng</w>
C ông,</w>
C yprus</w>
C ung</w>
C in
C er
C ay</w>
C are</w>
C ang</w>
C ancer</w>
C MO</w>
C M
Busin esses</w>
Bur iram</w>
Bu zz
Brussel s</w>
Brune i,</w>
Bru in</w>
Bro ther</w>
Bro ad
Bri an</w>
Braz il
Bra d</w>
Br ébisson</w>
Br and
Br ad
Bo logn
Bo eh
Bo dy</w>
Blue Tr
Blu e</w>
Bi ến</w>
Bi ên,</w>
Bi x
Bern ard</w>
Bei ru
Be ing</w>
Be havi
Bay er</w>
Barcel ona</w>
Bar thélemy</w>
Ba z
B ích</w>
B ài,</w>
B ing</w>
B il
B ed
B ear</w>
B ap
B ank
B all</w>
B acter
B ack</w>
At l
Ar ctic</w>
Ap sara</w>
Anim al</w>
Anh :</w>
Anh .',</w>
Andre ws</w>
An yone</w>
An nec
Amir an</w>
Amaz on,</w>
Almat y</w>
Alex andre</w>
Al v
Al ab
Ail en</w>
Ah mad</w>
Agn ès</w>
Ad am</w>
Ac ross</w>
Ab omin
AP I</w>
AH EP
A rellan
A ng</w>
A mi
A guil
A greement</w>
A eon</w>
A G
: 20</w>
9 81</w>
9 50</w>
9 1st</w>
9 %.</w>
9 ""</w>
8. 8</w>
8. 7</w>
8, 7</w>
8 %,</w>
7, 5</w>
7 87</w>
60 3</w>
6 73</w>
6 12</w>
6 1%</w>
6 0-
5. 8</w>
5 6%</w>
5 4.
5 0,
5 /
5 )</w>
4. 2</w>
4, 8
4 80</w>
4 8%</w>
4 5.
4 5,
4 4%</w>
4 30</w>
4 2.
4 000</w>
4 00.000</w>
4 /
4 )</w>
4 ),</w>
36 1</w>
30 .</w>
3. 2</w>
3. 1</w>
3, 3</w>
3, 200</w>
3 G</w>
3 85</w>
3 7.5</w>
3 7
3 65</w>
3 55</w>
3 43</w>
3 34</w>
3 32</w>
3 28</w>
3 25</w>
3 %.</w>
27 6</w>
27 1</w>
27 %</w>
26 5</w>
26 ,</w>
26 ,
25 7</w>
25 .
22 nd</w>
2025 ,</w>
202 2,</w>
2019– 20</w>
201 0.</w>
200 9.</w>
200 8.</w>
200 3.</w>
20 50</w>
20 5
20 /
2/ 3</w>
2. 0</w>
2, 700</w>
2 nd</w>
2 9/
2 3,
2 16</w>
2 100</w>
2 1/
2 1.
2 %.</w>
199 7</w>
197 9</w>
197 4,</w>
197 2</w>
197 0s</w>
196 0s</w>
195 0s</w>
19 8</w>
19 70</w>
19 65</w>
19 60</w>
18 .</w>
16 4</w>
16 %</w>
15 9</w>
15 6</w>
15 4</w>
15 2</w>
14 th</w>
14 -
12 -
10 /
1. 400</w>
1. 300</w>
1, 7</w>
1 23</w>
1 21</w>
1 1/
0 6</w>
.. .',</w>
. \xa0</w>
+ 603</w>
(AI )</w>
( đại</w>
( không</w>
( các</w>
( chủ</w>
( UNCLOS
( Trung</w>
( K
( G
( F
( B
( 3</w>
( 3,
( 16
( 10
' Ví</w>
' Nếu</w>
' Ngoài</w>
' L
' Hầu</w>
' Ch
' .</w>
""" Điều</w>
"" bệnh</w>
"" The</w>
"" Không</w>
" Được</w>
" Và</w>
" Trước</w>
" The</w>
" Nếu</w>
" Năm</w>
“họ ”</w>
“ đã</w>
“ gây</w>
“ Vì</w>
“ Tình</w>
“ Tr
“ Sau</w>
“ Người</w>
“ Hãy</w>
​​ trước</w>
​​ sự</w>
ỹ ,</w>
ừ ng.</w>
ụ c.</w>
ớ t,</w>
ỗ i.</w>
ổ n,</w>
ố m,</w>
ọ a</w>
ọ .</w>
ị n</w>
ị .</w>
ẫ u
ầ m,</w>
ươ ́c</w>
ơ m,</w>
ũ ng.</w>
đẹ p
đầ u
đấ y
được .”</w>
đươ ̣c</w>
đú ng,</w>
đô ,</w>
đó .',</w>
đu n</w>
đo án.</w>
đ ứt</w>
đ ới.</w>
đ ậy</w>
đ ầm</w>
đ ạm</w>
đ ơn.</w>
đ òn</w>
đ en.</w>
Đông ."</w>
Đ ứa</w>
Đ ột</w>
Đ ề</w>
Đ ảng,</w>
Đ óng</w>
Đ àn</w>
Đ àm</w>
Đ i</w>
ô m,</w>
ô i.</w>
ó c-môn</w>
ó ,</w>
ò n,</w>
ò a.</w>
ình ."</w>
ên )</w>
ê ̀</w>
é .</w>
át-x pi-r
á il</w>
Â n</w>
Â m</w>
  có</w>
z oo
zoo s</w>
z ia</w>
z eg
zeg ov
yếu ”</w>
yếu ""</w>
yê u,</w>
yst al</w>
ye v</w>
y ware</w>
y ol
y n
xo a</w>
x úc.</w>
x ôi</w>
x ã,</w>
x ture</w>
x in.</w>
x ay</w>
wor rying</w>
win eries</w>
wid er</w>
where in</w>
where as</w>
where ab
whereab outs</w>
weigh s</w>
wed dings</w>
weap on</w>
weak ness</w>
weak ens</w>
we igh</w>
water falls</w>
wat ch
war s</w>
war d
wal k
w yer</w>
w ris
w ell
w anting</w>
w anese</w>
w alls</w>
vắc-x in
và ng”</w>
và ng,</w>
vulner ability</w>
vu ông.</w>
vit am
viol ators</w>
vibr ant</w>
vi ễn.</w>
vi ties</w>
vi sa
vi c</w>
vi a,</w>
ves ting</w>
ver sus</w>
ver bal</w>
ven om
venom ous</w>
ve ,</w>
vari eties</w>
vacc ine,</w>
v ợ,</w>
v ốn,</w>
v ấn.</w>
v ạn</w>
v ườ
v ú</w>
v ã</w>
v áy</w>
v á
v s</w>
v ang.</w>
uy ện,</w>
uy ên,</w>
uti li
use a</w>
us h
us c
ur u</w>
ur n</w>
ur ik
up grade</w>
under ing</w>
un well</w>
un nan</w>
un ited</w>
un employed</w>
udd in</w>
u ống.</w>
u ốn</w>
u tionary</w>
u mo
u ality</w>
u -
u ),</w>
từ ,</w>
tố ,</w>
tướ ng.</w>
tôi .”</w>
tôi ."""</w>
tô ,</w>
twel ve</w>
ture r</w>
tur no
turno ver</w>
tu ition</w>
tt an</w>
trá ch,</w>
trustwor thy</w>
tru ng.</w>
trigg ering</w>
tri o</w>
trem ors</w>
trad er</w>
trac ked</w>
tra um
tra gic</w>
tr ứng.</w>
tr ỗi</w>
tr ưởng,</w>
tr ăng.</w>
tr ù
tr y
tr uyện</w>
tr usting</w>
tr oo
troo ps</w>
tor ren
torren tial</w>
top ics</w>
too th
tol er
to ả</w>
to red</w>
to graph
tiệ n,</w>
tiê m,</w>
tiz ed</w>
tin es</w>
tin ."</w>
tigh tened</w>
ti tu
ti red</w>
ti p</w>
ti nh,</w>
ti ngu
ti fied</w>
ti e</w>
thị t,</w>
thă m,</w>
thu ế
thu ́</w>
thu .</w>
thr one</w>
thou ghts</w>
tho ái.</w>
thing ton</w>
therap eu
ther os
theros cl
theroscl ero
therosclero sis</w>
them es</w>
the astern</w>
th ủng</w>
th ủ,</w>
th ỉnh</w>
th ằng</w>
th ắp</w>
th ắc</w>
th ật
th ả
th ươ
th úc.</w>
th ùng.</w>
th èm</w>
th ành
th ur
th iện,</w>
th in</w>
th ick
th anh.</w>
th anh,</w>
th al
ter ror</w>
telecommunic ation</w>
tel evi
televi sed</w>
tel ,</w>
te re
tas tes</w>
tane ous</w>
tag ged</w>
tack ling</w>
ta p</w>
t ựu</w>
t ọa</w>
t ặng,</w>
t ặc</w>
t ấy</w>
t ương,</w>
t u</w>
t ten</w>
t s.</w>
t s
t night</w>
t light</w>
t ating</w>
t ances</w>
t am</w>
t ables</w>
t ."""</w>
sắ m,</w>
só t.</w>
syn thes
symp tomatic</w>
swe at</w>
sw elling</w>
surpris ingly</w>
surpris es</w>
surg eries</w>
sup plying</w>
subsi dies</w>
subsequ ent</w>
sub- Saharan</w>
sub urban</w>
sub sid
su ối</w>
su it
strugg les</w>
strong est</w>
stro kes</w>
str ing</w>
sto wn</w>
stitu tion</w>
stimu lation</w>
sti ff</w>
ste in</w>
stat ue</w>
st ling</w>
st agg
squ ad</w>
spo tlight</w>
spee ds</w>
spect ators</w>
sp yware</w>
sp lit</w>
sp ices</w>
sp an</w>
sovere ign</w>
south west</w>
sor ship</w>
some what</w>
soldi er</w>
sol e</w>
so red</w>
so m</w>
so i</w>
sni a</w>
sme tics</w>
simul taneously</w>
sil ence</w>
sign als</w>
sid elines</w>
si onal</w>
si nging</w>
shr ink</w>
show ers</w>
shou ting</w>
shoo ting</w>
shir t</w>
shel ters</w>
sha ped</w>
sh ine</w>
sex y</w>
sex ,</w>
sero types</w>
ser otype</w>
sequ ence</w>
separ ating</w>
sen ds</w>
sen al</w>
sel ection</w>
seg ments</w>
se ats</w>
scru tiny</w>
scre ens</w>
scap es</w>
scam s</w>
scal es</w>
san iti
sa vings</w>
sa o,</w>
sa o
sa il
sail ors</w>
s ừng</w>
s ạch,</w>
s úp</w>
s ên</w>
s wi
s ile</w>
s cu
s coo
s cared</w>
s ace</w>
rồ i.</w>
rõ .</w>
rá c.</w>
ru ́t</w>
ro om
ro of</w>
ro aches</w>
riê ng,</w>
rit uals</w>
rit ual</w>
rit on
riton avir</w>
rich ter</w>
rich ment</w>
ric kets</w>
ric ane</w>
ri nging</w>
ri l</w>
ri es</w>
ri ed</w>
rest ore</w>
resol ution</w>
resili ent</w>
rescu ed</w>
repe at</w>
repatri ate</w>
rep lied</w>
renew ed</w>
ren tal</w>
ren e</w>
ren a</w>
remov es</w>
[...]
